{
  "version": "1.0",
  "truncation": null,
  "padding": null,
  "added_tokens": [
    {
      "id": 0,
      "content": "[UNK]",
      "single_word": false,
      "lstrip": false,
      "rstrip": false,
      "normalized": false,
      "special": true
    },
    {
      "id": 1,
      "content": "[CLS]",
      "single_word": false,
      "lstrip": false,
      "rstrip": false,
      "normalized": false,
      "special": true
    },
    {
      "id": 2,
      "content": "[SEP]",
      "single_word": false,
      "lstrip": false,
      "rstrip": false,
      "normalized": false,
      "special": true
    },
    {
      "id": 3,
      "content": "[PAD]",
      "single_word": false,
      "lstrip": false,
      "rstrip": false,
      "normalized": false,
      "special": true
    },
    {
      "id": 4,
      "content": "[MASK]",
      "single_word": false,
      "lstrip": false,
      "rstrip": false,
      "normalized": false,
      "special": true
    }
  ],
  "normalizer": null,
  "pre_tokenizer": {
    "type": "Whitespace"
  },
  "post_processor": null,
  "decoder": null,
  "model": {
    "type": "BPE",
    "dropout": null,
    "unk_token": "[UNK]",
    "continuing_subword_prefix": null,
    "end_of_word_suffix": null,
    "fuse_unk": false,
    "vocab": {
      "[UNK]": 0,
      "[CLS]": 1,
      "[SEP]": 2,
      "[PAD]": 3,
      "[MASK]": 4,
      "\b": 5,
      "!": 6,
      "\"": 7,
      "#": 8,
      "%": 9,
      "&": 10,
      "'": 11,
      "(": 12,
      ")": 13,
      "*": 14,
      "+": 15,
      ",": 16,
      "-": 17,
      ".": 18,
      "/": 19,
      "0": 20,
      "1": 21,
      "2": 22,
      "3": 23,
      "4": 24,
      "5": 25,
      "6": 26,
      "7": 27,
      "8": 28,
      "9": 29,
      ":": 30,
      ";": 31,
      "<": 32,
      "=": 33,
      ">": 34,
      "?": 35,
      "@": 36,
      "A": 37,
      "B": 38,
      "C": 39,
      "D": 40,
      "E": 41,
      "F": 42,
      "G": 43,
      "H": 44,
      "I": 45,
      "J": 46,
      "K": 47,
      "L": 48,
      "M": 49,
      "N": 50,
      "O": 51,
      "P": 52,
      "Q": 53,
      "R": 54,
      "S": 55,
      "T": 56,
      "U": 57,
      "V": 58,
      "W": 59,
      "X": 60,
      "Y": 61,
      "Z": 62,
      "[": 63,
      "\\": 64,
      "]": 65,
      "_": 66,
      "`": 67,
      "a": 68,
      "b": 69,
      "c": 70,
      "d": 71,
      "e": 72,
      "f": 73,
      "g": 74,
      "h": 75,
      "i": 76,
      "j": 77,
      "k": 78,
      "l": 79,
      "m": 80,
      "n": 81,
      "o": 82,
      "p": 83,
      "q": 84,
      "r": 85,
      "s": 86,
      "t": 87,
      "u": 88,
      "v": 89,
      "w": 90,
      "x": 91,
      "y": 92,
      "z": 93,
      "|": 94,
      "}": 95,
      "~": 96,
      "": 97,
      "¡": 98,
      "«": 99,
      "¬": 100,
      "­": 101,
      "°": 102,
      "´": 103,
      "·": 104,
      "»": 105,
      "¼": 106,
      "½": 107,
      "Ð": 108,
      "ß": 109,
      "á": 110,
      "â": 111,
      "ä": 112,
      "ó": 113,
      "ö": 114,
      "÷": 115,
      "ü": 116,
      "ʺ": 117,
      "ʻ": 118,
      "ʼ": 119,
      "˝": 120,
      "̋": 121,
      "̍": 122,
      "̎": 123,
      "߹": 124,
      "ሀ": 125,
      "ሁ": 126,
      "ሂ": 127,
      "ሃ": 128,
      "ሄ": 129,
      "ህ": 130,
      "ሆ": 131,
      "ለ": 132,
      "ሉ": 133,
      "ሊ": 134,
      "ላ": 135,
      "ሌ": 136,
      "ል": 137,
      "ሎ": 138,
      "ሏ": 139,
      "ሐ": 140,
      "ሑ": 141,
      "ሒ": 142,
      "ሓ": 143,
      "ሔ": 144,
      "ሕ": 145,
      "ሖ": 146,
      "ሗ": 147,
      "መ": 148,
      "ሙ": 149,
      "ሚ": 150,
      "ማ": 151,
      "ሜ": 152,
      "ም": 153,
      "ሞ": 154,
      "ሟ": 155,
      "ሠ": 156,
      "ሡ": 157,
      "ሢ": 158,
      "ሣ": 159,
      "ሤ": 160,
      "ሥ": 161,
      "ሦ": 162,
      "ረ": 163,
      "ሩ": 164,
      "ሪ": 165,
      "ራ": 166,
      "ሬ": 167,
      "ር": 168,
      "ሮ": 169,
      "ሯ": 170,
      "ሰ": 171,
      "ሱ": 172,
      "ሲ": 173,
      "ሳ": 174,
      "ሴ": 175,
      "ስ": 176,
      "ሶ": 177,
      "ሷ": 178,
      "ሸ": 179,
      "ሹ": 180,
      "ሺ": 181,
      "ሻ": 182,
      "ሼ": 183,
      "ሽ": 184,
      "ሾ": 185,
      "ሿ": 186,
      "ቀ": 187,
      "ቁ": 188,
      "ቂ": 189,
      "ቃ": 190,
      "ቄ": 191,
      "ቅ": 192,
      "ቆ": 193,
      "ቈ": 194,
      "ቊ": 195,
      "ቋ": 196,
      "ቍ": 197,
      "ቐ": 198,
      "ቑ": 199,
      "ቓ": 200,
      "ቕ": 201,
      "ቛ": 202,
      "በ": 203,
      "ቡ": 204,
      "ቢ": 205,
      "ባ": 206,
      "ቤ": 207,
      "ብ": 208,
      "ቦ": 209,
      "ቧ": 210,
      "ቨ": 211,
      "ቩ": 212,
      "ቪ": 213,
      "ቫ": 214,
      "ቬ": 215,
      "ቭ": 216,
      "ቮ": 217,
      "ቯ": 218,
      "ተ": 219,
      "ቱ": 220,
      "ቲ": 221,
      "ታ": 222,
      "ቴ": 223,
      "ት": 224,
      "ቶ": 225,
      "ቷ": 226,
      "ቸ": 227,
      "ቹ": 228,
      "ቺ": 229,
      "ቻ": 230,
      "ቼ": 231,
      "ች": 232,
      "ቾ": 233,
      "ቿ": 234,
      "ኀ": 235,
      "ኁ": 236,
      "ኂ": 237,
      "ኃ": 238,
      "ኄ": 239,
      "ኅ": 240,
      "ኆ": 241,
      "ኋ": 242,
      "ነ": 243,
      "ኑ": 244,
      "ኒ": 245,
      "ና": 246,
      "ኔ": 247,
      "ን": 248,
      "ኖ": 249,
      "ኗ": 250,
      "ኘ": 251,
      "ኙ": 252,
      "ኚ": 253,
      "ኛ": 254,
      "ኜ": 255,
      "ኝ": 256,
      "ኞ": 257,
      "ኟ": 258,
      "አ": 259,
      "ኡ": 260,
      "ኢ": 261,
      "ኣ": 262,
      "ኤ": 263,
      "እ": 264,
      "ኦ": 265,
      "ኧ": 266,
      "ከ": 267,
      "ኩ": 268,
      "ኪ": 269,
      "ካ": 270,
      "ኬ": 271,
      "ክ": 272,
      "ኮ": 273,
      "ኰ": 274,
      "ኲ": 275,
      "ኳ": 276,
      "ኵ": 277,
      "ኸ": 278,
      "ኹ": 279,
      "ኺ": 280,
      "ኻ": 281,
      "ኼ": 282,
      "ኽ": 283,
      "ኾ": 284,
      "ዃ": 285,
      "ወ": 286,
      "ዉ": 287,
      "ዊ": 288,
      "ዋ": 289,
      "ዌ": 290,
      "ው": 291,
      "ዎ": 292,
      "ዐ": 293,
      "ዑ": 294,
      "ዒ": 295,
      "ዓ": 296,
      "ዔ": 297,
      "ዕ": 298,
      "ዖ": 299,
      "ዘ": 300,
      "ዙ": 301,
      "ዚ": 302,
      "ዛ": 303,
      "ዜ": 304,
      "ዝ": 305,
      "ዞ": 306,
      "ዟ": 307,
      "ዠ": 308,
      "ዡ": 309,
      "ዢ": 310,
      "ዣ": 311,
      "ዤ": 312,
      "ዥ": 313,
      "ዦ": 314,
      "ዧ": 315,
      "የ": 316,
      "ዩ": 317,
      "ዪ": 318,
      "ያ": 319,
      "ዬ": 320,
      "ይ": 321,
      "ዮ": 322,
      "ዯ": 323,
      "ደ": 324,
      "ዱ": 325,
      "ዲ": 326,
      "ዳ": 327,
      "ዴ": 328,
      "ድ": 329,
      "ዶ": 330,
      "ዷ": 331,
      "ዻ": 332,
      "ዽ": 333,
      "ዿ": 334,
      "ጀ": 335,
      "ጁ": 336,
      "ጂ": 337,
      "ጃ": 338,
      "ጄ": 339,
      "ጅ": 340,
      "ጆ": 341,
      "ጇ": 342,
      "ገ": 343,
      "ጉ": 344,
      "ጊ": 345,
      "ጋ": 346,
      "ጌ": 347,
      "ግ": 348,
      "ጎ": 349,
      "ጏ": 350,
      "ጐ": 351,
      "ጒ": 352,
      "ጓ": 353,
      "ጕ": 354,
      "ጙ": 355,
      "ጠ": 356,
      "ጡ": 357,
      "ጢ": 358,
      "ጣ": 359,
      "ጤ": 360,
      "ጥ": 361,
      "ጦ": 362,
      "ጧ": 363,
      "ጨ": 364,
      "ጩ": 365,
      "ጪ": 366,
      "ጫ": 367,
      "ጬ": 368,
      "ጭ": 369,
      "ጮ": 370,
      "ጯ": 371,
      "ጰ": 372,
      "ጱ": 373,
      "ጲ": 374,
      "ጳ": 375,
      "ጴ": 376,
      "ጵ": 377,
      "ጶ": 378,
      "ጷ": 379,
      "ጸ": 380,
      "ጹ": 381,
      "ጺ": 382,
      "ጻ": 383,
      "ጼ": 384,
      "ጽ": 385,
      "ጾ": 386,
      "ጿ": 387,
      "ፀ": 388,
      "ፁ": 389,
      "ፂ": 390,
      "ፃ": 391,
      "ፄ": 392,
      "ፅ": 393,
      "ፆ": 394,
      "ፇ": 395,
      "ፈ": 396,
      "ፉ": 397,
      "ፊ": 398,
      "ፋ": 399,
      "ፌ": 400,
      "ፍ": 401,
      "ፎ": 402,
      "ፏ": 403,
      "ፐ": 404,
      "ፑ": 405,
      "ፒ": 406,
      "ፓ": 407,
      "ፔ": 408,
      "ፕ": 409,
      "ፖ": 410,
      "ፗ": 411,
      "፡": 412,
      "።": 413,
      "፣": 414,
      "፤": 415,
      "፥": 416,
      "፦": 417,
      "፧": 418,
      "፫": 419,
      "፯": 420,
      "፲": 421,
      "፶": 422,
      "᎐": 423,
      "​": 424,
      "‐": 425,
      "–": 426,
      "—": 427,
      "‘": 428,
      "’": 429,
      "‚": 430,
      "“": 431,
      "”": 432,
      "„": 433,
      "‟": 434,
      "•": 435,
      "…": 436,
      "′": 437,
      "″": 438,
      "‶": 439,
      "‹": 440,
      "›": 441,
      "‼": 442,
      "⁠": 443,
      "₋": 444,
      "€": 445,
      "™": 446,
      "∕": 447,
      "∙": 448,
      "∶": 449,
      "▪": 450,
      "➤": 451,
      "ⵆ": 452,
      "ⵑ": 453,
      "ⵝ": 454,
      "": 455,
      "": 456,
      "": 457,
      "️": 458,
      "﻿": 459,
      "）": 460,
      "🇪": 461,
      "🇹": 462,
      "👉": 463,
      "እን": 464,
      "ቸው": 465,
      "እና": 466,
      "የተ": 467,
      "ላይ": 468,
      "የሚ": 469,
      "ዎች": 470,
      "አስ": 471,
      "ዋል": 472,
      "እንደ": 473,
      "ነት": 474,
      "ትዮ": 475,
      "ኢትዮ": 476,
      "ጵያ": 477,
      "ስት": 478,
      "ኢትዮጵያ": 479,
      "ችን": 480,
      "የአ": 481,
      "መን": 482,
      "ደረ": 483,
      "ነው": 484,
      "ጋር": 485,
      "ስራ": 486,
      "ለማ": 487,
      "በአ": 488,
      "መሆ": 489,
      "እንዲ": 490,
      "ውን": 491,
      "ከተ": 492,
      "ቶች": 493,
      "ርት": 494,
      "ክል": 495,
      "20": 496,
      "ጉዳ": 497,
      "ለት": 498,
      "ሚኒ": 499,
      "በመ": 500,
      "ብር": 501,
      "ሪካ": 502,
      "በት": 503,
      "በተ": 504,
      "መሰ": 505,
      "እንደሚ": 506,
      "መረ": 507,
      "ለመ": 508,
      "ማስ": 509,
      "ድር": 510,
      "ራዊ": 511,
      "ደር": 512,
      "ገለ": 513,
      "tt": 514,
      "ማት": 515,
      "ዲስ": 516,
      "ww": 517,
      "201": 518,
      "ቸውን": 519,
      "ገል": 520,
      "ለን": 521,
      "ኑን": 522,
      "ተኛ": 523,
      "ባለ": 524,
      "ስማ": 525,
      "ትር": 526,
      "መንግ": 527,
      "በባ": 528,
      "ምክ": 529,
      "ግና": 530,
      "ረት": 531,
      "an": 532,
      "ps": 533,
      "//": 534,
      "://": 535,
      "htt": 536,
      "https": 537,
      "እስራ": 538,
      "የን": 539,
      "ስል": 540,
      "ላሉ": 541,
      "co": 542,
      "ለም": 543,
      "ንት": 544,
      "ስተ": 545,
      "ግን": 546,
      "ሚኒስት": 547,
      "ድረ": 548,
      "በር": 549,
      "እስራኤ": 550,
      "ታል": 551,
      "ከተማ": 552,
      "ሀገ": 553,
      "ክልል": 554,
      "ቤት": 555,
      "ጦር": 556,
      "ሪያ": 557,
      "በረ": 558,
      "ያለ": 559,
      "ከእ": 560,
      "አበባ": 561,
      "አስታ": 562,
      "ባን": 563,
      "ana": 564,
      "fana": 565,
      "ራት": 566,
      "ልማት": 567,
      "የመ": 568,
      "ተር": 569,
      "መሰግና": 570,
      "እናመሰግና": 571,
      "እናመሰግናለን": 572,
      "እስራኤል": 573,
      "ስላሉ": 574,
      "ዘወ": 575,
      "ከእኛ": 576,
      "ዘወትር": 577,
      "መር": 578,
      "መሆኑን": 579,
      "!።": 580,
      "ጠቅ": 581,
      "com": 582,
      "ሎች": 583,
      "ፍሪካ": 584,
      "የኢትዮጵያ": 585,
      "ያስ": 586,
      "እር": 587,
      "ሚኒስትር": 588,
      "ወደ": 589,
      "ውስ": 590,
      "te": 591,
      "ሊየን": 592,
      "ስማርት": 593,
      "ማህ": 594,
      "ሮች": 595,
      "ሰብ": 596,
      "አን": 597,
      "ታደ": 598,
      "አስተ": 599,
      "ዎችን": 600,
      "በላይ": 601,
      "ደረገ": 602,
      "ካሄ": 603,
      "የነ": 604,
      "በማ": 605,
      "መረጃ": 606,
      "ምር": 607,
      "ሁለት": 608,
      "ሽን": 609,
      "መል": 610,
      "በጋ": 611,
      "ወቅ": 612,
      "ጠና": 613,
      "አቶ": 614,
      "ስልክ": 615,
      "ኢን": 616,
      "እየተ": 617,
      "ገለጸ": 618,
      "on": 619,
      "ድን": 620,
      "ግኘ": 621,
      "ተከ": 622,
      "መስ": 623,
      "ለው": 624,
      "የስማርት": 625,
      "ወታደ": 626,
      "ከፍ": 627,
      "ሰራ": 628,
      "ሥራ": 629,
      "አካ": 630,
      "ግራ": 631,
      "መንግሥ": 632,
      "ገባ": 633,
      "በኢትዮጵያ": 634,
      "ይና": 635,
      "ድጋ": 636,
      "le": 637,
      "በሚ": 638,
      "ጠቅላይ": 639,
      "ለያ": 640,
      "ላት": 641,
      "www": 642,
      "ion": 643,
      "is": 644,
      "ሉት": 645,
      "ዋልታ": 646,
      "ባቸው": 647,
      "ጉዳይ": 648,
      "ውስጥ": 649,
      "ፕሬ": 650,
      "ዚህ": 651,
      "የሚገ": 652,
      "ቱን": 653,
      "ሆን": 654,
      "ሜሪካ": 655,
      "መራ": 656,
      "ሏል": 657,
      "አል": 658,
      "ባንክ": 659,
      "ላቸው": 660,
      "ያን": 661,
      "እስ": 662,
      "ስፒ": 663,
      "ማሪ": 664,
      "ሆስፒ": 665,
      "የእስራኤል": 666,
      "ዓመ": 667,
      "ወረ": 668,
      "ክት": 669,
      "ስቴ": 670,
      "ከፍተኛ": 671,
      "ርድ": 672,
      "ነጥ": 673,
      "ምሮ": 674,
      "የአፍሪካ": 675,
      "ሁን": 676,
      "in": 677,
      "ሚያ": 678,
      "አቀ": 679,
      "ቶችን": 680,
      "ወቀ": 681,
      "ናት": 682,
      "በቀ": 683,
      "መንግሥት": 684,
      "lev": 685,
      "የቀ": 686,
      "ision": 687,
      "telev": 688,
      "television": 689,
      "ድጋፍ": 690,
      "የው": 691,
      "ማህጸ": 692,
      "ሱሰ": 693,
      "ኮሚ": 694,
      "ዓለም": 695,
      "ሚሊየን": 696,
      "ሰላ": 697,
      "ተጠ": 698,
      "ምን": 699,
      "ታዊ": 700,
      "ተቋ": 701,
      "ፈጠ": 702,
      "ከል": 703,
      "ግባ": 704,
      "ቦች": 705,
      "ተና": 706,
      "ንስ": 707,
      "ግሎ": 708,
      "ተወ": 709,
      "ላፊ": 710,
      "መድ": 711,
      "ግብ": 712,
      "ሚኒስቴ": 713,
      "ግድ": 714,
      "ከላ": 715,
      "ቀን": 716,
      "አዲስ": 717,
      "አስተዳ": 718,
      "መለ": 719,
      "ዮች": 720,
      "ግር": 721,
      "ቷል": 722,
      "ክተር": 723,
      "2014": 724,
      "እየ": 725,
      "ሺህ": 726,
      "ሆነ": 727,
      "ክፍ": 728,
      "ደረጉ": 729,
      "ገልግሎ": 730,
      "አስታወቀ": 731,
      "የት": 732,
      "ጊዜ": 733,
      "ምህ": 734,
      "ትል": 735,
      "ግለ": 736,
      "አባ": 737,
      "ተኞ": 738,
      "ናቸው": 739,
      "ታቸውን": 740,
      "የነበረ": 741,
      "ግኘት": 742,
      "ቃት": 743,
      "ፓር": 744,
      "ራል": 745,
      "ዘር": 746,
      "ወሰ": 747,
      "ገር": 748,
      "አገልግሎ": 749,
      "ከ1": 750,
      "እንዳ": 751,
      "ክስ": 752,
      "አም": 753,
      "ሚኒስቴር": 754,
      "ዋና": 755,
      "st": 756,
      "ንድ": 757,
      "ሃማስ": 758,
      "ዩኒ": 759,
      "የጥ": 760,
      "ሆስፒታል": 761,
      "ማለት": 762,
      "ሰጥ": 763,
      "ምክር": 764,
      "ታት": 765,
      "ዝብ": 766,
      "ካሄደ": 767,
      "ሁለ": 768,
      "ለዋል": 769,
      "አስታው": 770,
      "ለማግኘት": 771,
      "የማ": 772,
      "ደቡ": 773,
      "ይል": 774,
      "ተገ": 775,
      "ብሏል": 776,
      "ጥር": 777,
      "ሰው": 778,
      "ሰላም": 779,
      "መላ": 780,
      "ለያዩ": 781,
      "ስር": 782,
      "ባቢ": 783,
      "ውይ": 784,
      "የአዲስ": 785,
      "የፋ": 786,
      "fanab": 787,
      "ፕሮ": 788,
      "ተፈ": 789,
      "ማህጸን": 790,
      "ገን": 791,
      "ቴሌ": 792,
      "ጠቀ": 793,
      "ሽፋ": 794,
      "ተዋል": 795,
      "ንያ": 796,
      "ቢሮ": 797,
      "ጣን": 798,
      "ገድ": 799,
      "እያ": 800,
      "ገልጸ": 801,
      "ጤና": 802,
      "ኝነት": 803,
      "ሀገር": 804,
      "ብለዋል": 805,
      "ሪዎች": 806,
      "አገልግሎት": 807,
      "ግንኙ": 808,
      "ቅር": 809,
      "መንግስት": 810,
      "የም": 811,
      "ምህርት": 812,
      "ቱም": 813,
      "ዮን": 814,
      "ወጣ": 815,
      "ላማ": 816,
      "ነጥብ": 817,
      "የሚያ": 818,
      "ሀማስ": 819,
      "በሩ": 820,
      "ቻይና": 821,
      "ድረግ": 822,
      "ጨማሪ": 823,
      "በጋዛ": 824,
      "ናል": 825,
      "ማራ": 826,
      "ቨር": 827,
      "ክልሉ": 828,
      "ግራም": 829,
      "ግብር": 830,
      "ቃል": 831,
      "fanatelevision": 832,
      "ገኘ": 833,
      "ብረ": 834,
      "ትን": 835,
      "ገራ": 836,
      "ያዘ": 837,
      "er": 838,
      "አደ": 839,
      "ታቸው": 840,
      "ክስተ": 841,
      "አስተዳደር": 842,
      "ይት": 843,
      "ዩኒቨር": 844,
      "ጥታ": 845,
      "2ኛ": 846,
      "ዓመት": 847,
      "ሲቲ": 848,
      "ነስ": 849,
      "ድርጅ": 850,
      "ኃላፊ": 851,
      "ብሔ": 852,
      "ፌዴ": 853,
      "ዝና": 854,
      "ፖሊ": 855,
      "ገለጹ": 856,
      "የህ": 857,
      "የፋና": 858,
      "መው": 859,
      "በል": 860,
      "ግንባ": 861,
      "ሳይ": 862,
      "ጦርነት": 863,
      "ዳንት": 864,
      "ምክትል": 865,
      "ዩኒቨርሲቲ": 866,
      "ተገለጸ": 867,
      "ስም": 868,
      "ወር": 869,
      "ያሉ": 870,
      "ጀመረ": 871,
      "ከያ": 872,
      "አሜሪካ": 873,
      "መሆኑ": 874,
      "2013": 875,
      "ኔታ": 876,
      "ሆኑ": 877,
      "ሊዮን": 878,
      "የውጭ": 879,
      "ሰዎች": 880,
      "ሁም": 881,
      "ማዕ": 882,
      "ዳን": 883,
      "ቢያ": 884,
      "ወን": 885,
      "ባሪ": 886,
      "አዳ": 887,
      "አሳ": 888,
      "እንዲሁም": 889,
      "አካባቢ": 890,
      "ደቡብ": 891,
      "ባይ": 892,
      "ባሳ": 893,
      "ምጃ": 894,
      "me": 895,
      "ከላከያ": 896,
      "ዶክተር": 897,
      "ወታደራዊ": 898,
      "ሆስፒታልን": 899,
      "ra": 900,
      "ዞን": 901,
      "ጉዳት": 902,
      "ተቋማት": 903,
      "መረጃዎችን": 904,
      "ሰራተኞ": 905,
      "አቀፍ": 906,
      "ing": 907,
      "ብረት": 908,
      "በኩ": 909,
      "ለምን": 910,
      "ፌስ": 911,
      "በተጨማሪ": 912,
      "ገኙ": 913,
      "ሩን": 914,
      "ከመ": 915,
      "ንግ": 916,
      "በዚህ": 917,
      "ትና": 918,
      "ou": 919,
      "ኦሮ": 920,
      "ዲት": 921,
      "ፓርቲ": 922,
      "ረጋ": 923,
      "ጉባ": 924,
      "በሁለት": 925,
      "ሲሆን": 926,
      "ፕሬዝ": 927,
      "ከር": 928,
      "፡-": 929,
      "ጥረት": 930,
      "እጅ": 931,
      "ላዊ": 932,
      "ቅም": 933,
      "ቡክ": 934,
      "ንን": 935,
      "ca": 936,
      "ro": 937,
      "ጉዳዮች": 938,
      "የሚገኙ": 939,
      "ወቅታዊ": 940,
      "ምርጫ": 941,
      "ፕሬዚ": 942,
      "ማር": 943,
      "አብ": 944,
      "የር": 945,
      "ዛሬ": 946,
      "ፌስቡክ": 947,
      "ተሰ": 948,
      "መንገድ": 949,
      "ትኩ": 950,
      "ከታ": 951,
      "2015": 952,
      "በርካ": 953,
      "00": 954,
      "ቋል": 955,
      "ሀገራት": 956,
      "ደረጃ": 957,
      "ይወ": 958,
      "42ኛ": 959,
      "እርግ": 960,
      "ቀኑን": 961,
      "ጀት": 962,
      "በርካታ": 963,
      "ይፋ": 964,
      "ወረር": 965,
      "ፖሊስ": 966,
      "ፊት": 967,
      "መጸ": 968,
      "መንት": 969,
      "ፈት": 970,
      "እርግዝና": 971,
      "ቢሊየን": 972,
      "እርምጃ": 973,
      "ሱሰኛ": 974,
      "ሱሰኝነት": 975,
      "ዜጎ": 976,
      "የኢ": 977,
      "አንድ": 978,
      "በጋራ": 979,
      "ግንባታ": 980,
      "አምባሳ": 981,
      "ቡድን": 982,
      "ጠየቀ": 983,
      "ርዕ": 984,
      "ሌሎች": 985,
      "አመራ": 986,
      "በዓ": 987,
      "ገልጸዋል": 988,
      "ደን": 989,
      "ኛው": 990,
      "ፈጸ": 991,
      "ሴቶች": 992,
      "ነጋ": 993,
      "ብሔራዊ": 994,
      "ተው": 995,
      "you": 996,
      "ችሉ": 997,
      "ጀመ": 998,
      "ግዛ": 999,
      "ጥቃት": 1000,
      "ሥር": 1001,
      "ስተዳ": 1002,
      "ክር": 1003,
      "ይገ": 1004,
      "ad": 1005,
      "አሁን": 1006,
      "tu": 1007,
      "እንዲሰጥ": 1008,
      "ነቱ": 1009,
      "ለሚ": 1010,
      "ለማስ": 1011,
      "መቀ": 1012,
      "ማሌ": 1013,
      "ግለጫ": 1014,
      "ሲያ": 1015,
      "ኦሮሚያ": 1016,
      "th": 1017,
      "ረዋል": 1018,
      "ስቲ": 1019,
      "ዓት": 1020,
      "ፕሮጀ": 1021,
      "አደረገ": 1022,
      "ሁኔታ": 1023,
      "ደግ": 1024,
      "ባት": 1025,
      "be": 1026,
      "ኃይል": 1027,
      "ቢይ": 1028,
      "ደረጉት": 1029,
      "ተከት": 1030,
      "መስተዳ": 1031,
      "ፕሬዚዳንት": 1032,
      "ዐቢይ": 1033,
      "ድም": 1034,
      "ምክንያ": 1035,
      "ተከትሎ": 1036,
      "ቀጥ": 1037,
      "ሠራ": 1038,
      "ስምም": 1039,
      "wi": 1040,
      "አሸ": 1041,
      "ከና": 1042,
      "ፖርት": 1043,
      "road": 1044,
      "ማግኘ": 1045,
      "cast": 1046,
      "roadcast": 1047,
      "roadcasting": 1048,
      "የሕ": 1049,
      "fanabroadcasting": 1050,
      "ሯል": 1051,
      "መሆና": 1052,
      "ቤቱ": 1053,
      "ዘጋ": 1054,
      "በሰ": 1055,
      "ሊያ": 1056,
      "ሁሉ": 1057,
      "አባላት": 1058,
      "ቀሳ": 1059,
      "ደበ": 1060,
      "ጠናቀ": 1061,
      "አምባሳደር": 1062,
      "የሚያስ": 1063,
      "ትምህርት": 1064,
      "ከዚህ": 1065,
      "በፊት": 1066,
      "ዳር": 1067,
      "አስፈ": 1068,
      "ወሓ": 1069,
      "ቻናል": 1070,
      "በአዲስ": 1071,
      "ወታደሮች": 1072,
      "ያሉት": 1073,
      "ወረዳ": 1074,
      "ንኩ": 1075,
      "ግራይ": 1076,
      "ክስተት": 1077,
      "ጥናት": 1078,
      "ክራ": 1079,
      "ፈጣን": 1080,
      "ልን": 1081,
      "ታችን": 1082,
      "ሬት": 1083,
      "ልዩ": 1084,
      "ተግባ": 1085,
      "ዝግ": 1086,
      "ዘርፍ": 1087,
      "ረም": 1088,
      "ሳቢ": 1089,
      "ቀረ": 1090,
      "ችል": 1091,
      "ምስ": 1092,
      "ኮሚሽን": 1093,
      "ቀር": 1094,
      "ሪክ": 1095,
      "ቀዋል": 1096,
      "ስታ": 1097,
      "ተወያ": 1098,
      "ገንዘ": 1099,
      "ማግኘታቸውን": 1100,
      "ገቢ": 1101,
      "ኖች": 1102,
      "ዘመ": 1103,
      "የክልሉ": 1104,
      "ችግ": 1105,
      "ላለ": 1106,
      "ንነት": 1107,
      "ተነ": 1108,
      "ያሳ": 1109,
      "ዊተር": 1110,
      "አገ": 1111,
      "ጠየቀበጋዛ": 1112,
      "እስከ": 1113,
      "ፍት": 1114,
      "ተስማ": 1115,
      "ድል": 1116,
      "መት": 1117,
      "ርዕሰ": 1118,
      "youtu": 1119,
      "youtube": 1120,
      "ተብሏል": 1121,
      "የሃ": 1122,
      "የተቀ": 1123,
      "ዳይ": 1124,
      "ሁለቱም": 1125,
      "አፍሪካ": 1126,
      "ወሓት": 1127,
      "አድር": 1128,
      "ገጽ": 1129,
      "ውያን": 1130,
      "ወንጀ": 1131,
      "በዚህም": 1132,
      "እንደተ": 1133,
      "re": 1134,
      "ዩብ": 1135,
      "ደራ": 1136,
      "ገበ": 1137,
      "ውይይት": 1138,
      "ታማ": 1139,
      "አለ": 1140,
      "ብት": 1141,
      "ጉዳዩ": 1142,
      "ያለውን": 1143,
      "ሳት": 1144,
      "መካ": 1145,
      "ዘግ": 1146,
      "ኢንዱ": 1147,
      "ቤቶች": 1148,
      "ያለው": 1149,
      "የተባለ": 1150,
      "tter": 1151,
      "ኢንዱስት": 1152,
      "በቅ": 1153,
      "ግንኙነት": 1154,
      "ቴሌግራም": 1155,
      "ቡድ": 1156,
      "ገብ": 1157,
      "ምና": 1158,
      "ኤፍ": 1159,
      "ፈል": 1160,
      "ረው": 1161,
      "witter": 1162,
      "መሠ": 1163,
      "twitter": 1164,
      "ከን": 1165,
      "ሬን": 1166,
      "ከሰ": 1167,
      "ገንዘብ": 1168,
      "ራዊት": 1169,
      "ቹን": 1170,
      "ሚሊዮን": 1171,
      "የኮ": 1172,
      "ደንት": 1173,
      "አስታውቋል": 1174,
      "ኮኖ": 1175,
      "እንዲያ": 1176,
      "ሙሉ": 1177,
      "ድርጅት": 1178,
      "ሪቱ": 1179,
      "ዜጎች": 1180,
      "አካላት": 1181,
      "ቴክ": 1182,
      "ተናግ": 1183,
      "ንቀሳ": 1184,
      "ላቀ": 1185,
      "ለች": 1186,
      "ጠር": 1187,
      "ስቱ": 1188,
      "po": 1189,
      "ሰባ": 1190,
      "አር": 1191,
      "እስካ": 1192,
      "ሲሉ": 1193,
      "መሆናቸው": 1194,
      "ግንኙነ": 1195,
      "ውል": 1196,
      "ኗል": 1197,
      "ዳይሬ": 1198,
      "ቁጥ": 1199,
      "የጠ": 1200,
      "ምክንያት": 1201,
      "የተለያዩ": 1202,
      "ሱን": 1203,
      "ወጥ": 1204,
      "ፌዴራል": 1205,
      "ቅድ": 1206,
      "ነገ": 1207,
      "ደረግ": 1208,
      "ሟሉ": 1209,
      "እስካሁን": 1210,
      "አው": 1211,
      "ተጋ": 1212,
      "ነር": 1213,
      "ገሩ": 1214,
      "ህል": 1215,
      "19": 1216,
      "በው": 1217,
      "ጥና": 1218,
      "ተናግረዋል": 1219,
      "እንደሚያስ": 1220,
      "አስታውቀዋል": 1221,
      "ስምምነት": 1222,
      "ቅረ": 1223,
      "መስተዳድር": 1224,
      "አዋ": 1225,
      "ጥቅም": 1226,
      "ላር": 1227,
      "ወቅት": 1228,
      "ግብርና": 1229,
      "ገና": 1230,
      "ቦት": 1231,
      "ጿል": 1232,
      "በጀት": 1233,
      "ክቶ": 1234,
      "ገልጿል": 1235,
      "fanabc": 1236,
      "ጉባኤ": 1237,
      "ፕሬዝደንት": 1238,
      "ትኩስ": 1239,
      "የተሟሉ": 1240,
      "ኢንዱስትሪ": 1241,
      "ችላ": 1242,
      "ግል": 1243,
      "ባሪው": 1244,
      "አፈ": 1245,
      "የሰ": 1246,
      "አደጋ": 1247,
      "_television": 1248,
      "fana_television": 1249,
      "በአሜሪካ": 1250,
      "ንቶ": 1251,
      "ጋሪ": 1252,
      "የጋ": 1253,
      "ፉት": 1254,
      "ያዎች": 1255,
      "መጠ": 1256,
      "ይሎች": 1257,
      "ቁጥጥር": 1258,
      "ሱዳን": 1259,
      "ዶላር": 1260,
      "በኩል": 1261,
      "ክፍል": 1262,
      "ይበል": 1263,
      "ከታተ": 1264,
      "ክሬን": 1265,
      "ሎጂ": 1266,
      "ቲካ": 1267,
      "አዳዲስ": 1268,
      "ያዘው": 1269,
      "ሆነው": 1270,
      "ችግር": 1271,
      "ያደረጉት": 1272,
      "እንደሚወሰ": 1273,
      "ገዝ": 1274,
      "ፈው": 1275,
      "ደረሰ": 1276,
      "ጁን": 1277,
      "ልም": 1278,
      "ሚኒስትሩ": 1279,
      "በተለያዩ": 1280,
      "rate": 1281,
      "ብል": 1282,
      "ዋን": 1283,
      "ከ6": 1284,
      "ጦርነቱ": 1285,
      "ደም": 1286,
      "cor": 1287,
      "ሎችን": 1288,
      "ሰራተኞቹ": 1289,
      "ርን": 1290,
      "ቲባ": 1291,
      "ፍርድ": 1292,
      "ከንቲባ": 1293,
      "ወይ": 1294,
      "corpo": 1295,
      "መድረ": 1296,
      "ሺሕ": 1297,
      "ፖለ": 1298,
      "የተሰ": 1299,
      "ረን": 1300,
      "corporate": 1301,
      "ሳኔ": 1302,
      "fanabroadcastingcorporate": 1303,
      "ክለ": 1304,
      "ውጤ": 1305,
      "መካከል": 1306,
      "ይበልጥ": 1307,
      "ማኅ": 1308,
      "የታ": 1309,
      "ለኢትዮጵያ": 1310,
      "የካ": 1311,
      "ጠቀም": 1312,
      "30": 1313,
      "ጎን": 1314,
      "ተወካ": 1315,
      "ጠት": 1316,
      "በአን": 1317,
      "10": 1318,
      "ህዝ": 1319,
      "የጸ": 1320,
      "ጎብ": 1321,
      "ፀጥታ": 1322,
      "በሚል": 1323,
      "ልብ": 1324,
      "ለያየ": 1325,
      "በጦርነቱ": 1326,
      "አይ": 1327,
      "ዕራ": 1328,
      "አሁንም": 1329,
      "ጨምሮ": 1330,
      "መጣ": 1331,
      "ጥሪ": 1332,
      "ኮሚቴ": 1333,
      "ok": 1334,
      "ይህ": 1335,
      "ገቡ": 1336,
      "ፈጠሩ": 1337,
      "ወንጀል": 1338,
      "ቋቋ": 1339,
      "ኮኖሚ": 1340,
      "ግደ": 1341,
      "ስተና": 1342,
      "ሥል": 1343,
      "ፖለቲካ": 1344,
      "ዳጅ": 1345,
      "ኮር": 1346,
      "ዓዊ": 1347,
      "ላጭ": 1348,
      "ያል": 1349,
      "በእስራኤል": 1350,
      "ሉን": 1351,
      "ረጋገ": 1352,
      "መሆኑንም": 1353,
      "ዋጋ": 1354,
      "››": 1355,
      "መላክ": 1356,
      "‹‹": 1357,
      "ጽን": 1358,
      "ኮሚሽ": 1359,
      "ረተ": 1360,
      "ጠቀሙ": 1361,
      "ሰብዓዊ": 1362,
      "ሴቶችን": 1363,
      "ድንገ": 1364,
      "ሆስፒታ": 1365,
      "ነጥቦች": 1366,
      "ቡድኑ": 1367,
      "ተጋላጭ": 1368,
      "ቿን": 1369,
      "ፈጠር": 1370,
      "ኞች": 1371,
      "ሆኗል": 1372,
      "it": 1373,
      "ጀን": 1374,
      "መግለጫ": 1375,
      "ለመቀ": 1376,
      "ጀምሮ": 1377,
      "ከናወ": 1378,
      "አመራሮች": 1379,
      "ገነ": 1380,
      "የሥራ": 1381,
      "በራዊ": 1382,
      "ቪስ": 1383,
      "የሚገቡ": 1384,
      "ድንገተኛ": 1385,
      "አጣ": 1386,
      "al": 1387,
      "ዴት": 1388,
      "እናት": 1389,
      "ደረገው": 1390,
      "በዓል": 1391,
      "ገጻ": 1392,
      "አቅር": 1393,
      "ዳይሬክተር": 1394,
      "መላው": 1395,
      "እየተካሄደ": 1396,
      "ዕምሮ": 1397,
      "ጥያ": 1398,
      "እንደሚችሉ": 1399,
      "ወራት": 1400,
      "ቆጥ": 1401,
      "የጠቆ": 1402,
      "በተጨማሪም": 1403,
      "ሰቀ": 1404,
      "እንዴት": 1405,
      "ጥያቄ": 1406,
      "ዙሪያ": 1407,
      "ቅና": 1408,
      "ጅት": 1409,
      "አሳሳቢ": 1410,
      "ተከስ": 1411,
      "ለበት": 1412,
      "ሻሻ": 1413,
      "ነዋ": 1414,
      "አሕ": 1415,
      "አነጋ": 1416,
      "ስብ": 1417,
      "ተቀ": 1418,
      "መሆኑንና": 1419,
      "ግም": 1420,
      "ሳተ": 1421,
      "ኮችን": 1422,
      "ሯቸው": 1423,
      "እየፈ": 1424,
      "የሚሉት": 1425,
      "ውሳኔ": 1426,
      "ጀመሪያ": 1427,
      "ህግ": 1428,
      "ውድ": 1429,
      "ሕዝብ": 1430,
      "ሙስ": 1431,
      "አሕመድ": 1432,
      "ኛውን": 1433,
      "ሆስፒታሎች": 1434,
      "ዥን": 1435,
      "200": 1436,
      "መከላከያ": 1437,
      "ስኬ": 1438,
      "የሰላም": 1439,
      "የሀ": 1440,
      "የስራ": 1441,
      "ሁሉም": 1442,
      "በሩት": 1443,
      "በቀላሉ": 1444,
      "የተለያየ": 1445,
      "ታግ": 1446,
      "በማድረግ": 1447,
      "ያለባቸው": 1448,
      "ተጥ": 1449,
      "the": 1450,
      "በሁለቱም": 1451,
      "ማድረ": 1452,
      "ወታደሮ": 1453,
      "አስቆጥ": 1454,
      "ከተጀመረ": 1455,
      "ጀመር": 1456,
      "ለማድረግ": 1457,
      "ለማችን": 1458,
      "ዓመታት": 1459,
      "የአዕምሮ": 1460,
      "ከበር": 1461,
      "ኋላ": 1462,
      "ጋት": 1463,
      "ፋት": 1464,
      "ወርቅ": 1465,
      "ጭነው": 1466,
      "ከሚ": 1467,
      "ዥያ": 1468,
      "ጥናቶች": 1469,
      "ራንስ": 1470,
      "ሬሽን": 1471,
      "ኦክስ": 1472,
      "ሰቀሰው": 1473,
      "ተጠበቀ": 1474,
      "ኢንቨ": 1475,
      "ገራሉ": 1476,
      "ኢላማ": 1477,
      "ይገባ": 1478,
      "መሰን": 1479,
      "ቪዥን": 1480,
      "ፊሊ": 1481,
      "ይናገራሉ": 1482,
      "የነበረች": 1483,
      "መሆናችን": 1484,
      "አንዲት": 1485,
      "ሶስቱ": 1486,
      "ብደ": 1487,
      "እንችላ": 1488,
      "ማወቅ": 1489,
      "የሚከታተ": 1490,
      "ብዙ": 1491,
      "እንችላለን": 1492,
      "አስቆጥሯል": 1493,
      "ነሷ": 1494,
      "በመቶ": 1495,
      "ካሄዱ": 1496,
      "የጥቃት": 1497,
      "የተባለች": 1498,
      "በያዘው": 1499,
      "ክስተቶች": 1500,
      "15": 1501,
      "ፎርድ": 1502,
      "ተከስቷል": 1503,
      "የጠቆመው": 1504,
      "ቴክኖ": 1505,
      "ገልጸው": 1506,
      "የተቀሰቀሰው": 1507,
      "ካሄድ": 1508,
      "አስክሬን": 1509,
      "ይገመ": 1510,
      "በማስ": 1511,
      "ቶሮ": 1512,
      "የሚፈጠር": 1513,
      "ስተናግደ": 1514,
      "ወታደሮቿን": 1515,
      "ኖሯቸው": 1516,
      "ላዊት": 1517,
      "ቶሮንቶ": 1518,
      "አነጋጋሪ": 1519,
      "ተጭነው": 1520,
      "መሰንዘ": 1521,
      "ፊሊፒ": 1522,
      "ማን": 1523,
      "ስንት": 1524,
      "ሶቹን": 1525,
      "ሪቻ": 1526,
      "ያሳያሉ": 1527,
      "ፊሊፒንስ": 1528,
      "ገራሚ": 1529,
      "አስገራሚ": 1530,
      "ንኩን": 1531,
      "ሪቻርድ": 1532,
      "ረስ": 1533,
      "ይገመታል": 1534,
      "ኦክስፎርድ": 1535,
      "ኖቿ": 1536,
      "ስልኮችን": 1537,
      "መሰንዘሩን": 1538,
      "ቸግር": 1539,
      "እንደሚጠቀሙ": 1540,
      "ሊንኩን": 1541,
      "አለምን": 1542,
      "ሊፈጠሩ": 1543,
      "እየፈተነ": 1544,
      "በሃማስ": 1545,
      "እንደማለት": 1546,
      "በአለማችን": 1547,
      "መንትያ": 1548,
      "ህዝብ": 1549,
      "ምዕራ": 1550,
      "ዮዲት": 1551,
      "ጦርንት": 1552,
      "ማሌዥያ": 1553,
      "አሳሳቢው": 1554,
      "ተጥሏል": 1555,
      "መኮ": 1556,
      "ዴቪስ": 1557,
      "ከመግዛ": 1558,
      "የሚከታተሉት": 1559,
      "ብቡ": 1560,
      "ተስተናግደ": 1561,
      "ጉዳቱም": 1562,
      "ልንላቸው": 1563,
      "ተስተናግደዋል": 1564,
      "ቸርን": 1565,
      "ያንብቡ": 1566,
      "እንደሚያስቸግር": 1567,
      "ነጥቦችኦክስፎርድ": 1568,
      "አጣች": 1569,
      "ከመግዛታችን": 1570,
      "እስራኤላዊት": 1571,
      "ያለተጠበቀ": 1572,
      "ውስየጥ": 1573,
      "ማህጸኖቿ": 1574,
      "ውይስ": 1575,
      "ነስአሳሳቢው": 1576,
      "ማርገዝ": 1577,
      "መጸነሷ": 1578,
      "መጸነስአሳሳቢው": 1579,
      "የሃቸርን": 1580,
      "በአንዷ": 1581,
      "ጽንሶቹን": 1582,
      "ታግታ": 1583,
      "ተስማሙ": 1584,
      "ትክ": 1585,
      "ብብር": 1586,
      "ወጪ": 1587,
      "ዩቲ": 1588,
      "ኤሌ": 1589,
      "የዓለም": 1590,
      "ተገልጿል": 1591,
      "ማዕከል": 1592,
      "ሰራተኞች": 1593,
      "12": 1594,
      "ላል": 1595,
      "ly": 1596,
      "ንግድ": 1597,
      "ዩቲዩብ": 1598,
      "አህ": 1599,
      "ርጣ": 1600,
      "ሜን": 1601,
      "ፈጸም": 1602,
      "ቴሌቪዥን": 1603,
      "መሆን": 1604,
      "በታ": 1605,
      "ከረም": 1606,
      "ሽብር": 1607,
      "ተናገሩ": 1608,
      "ብሎ": 1609,
      "ለተ": 1610,
      "ይቀ": 1611,
      "ቴክኖሎጂ": 1612,
      "ti": 1613,
      "ግጭ": 1614,
      "የጋራ": 1615,
      "ኤሌክት": 1616,
      "ባይደን": 1617,
      "ኢንቨስት": 1618,
      "ኩባን": 1619,
      "የጸጥታ": 1620,
      "መሳ": 1621,
      "ኮርፖ": 1622,
      "የአማራ": 1623,
      "አቅ": 1624,
      "አካባቢዎች": 1625,
      "ክሮ": 1626,
      "ይታ": 1627,
      "ገፃ": 1628,
      "አየር": 1629,
      "በይፋ": 1630,
      "ቢሮውን": 1631,
      "ፋር": 1632,
      "ቃሽ": 1633,
      "መልዕ": 1634,
      "ዘግቷል": 1635,
      "ማዊ": 1636,
      "በኋላ": 1637,
      "የንግድ": 1638,
      "ተወካዮች": 1639,
      "ጠል": 1640,
      "አገር": 1641,
      "ናዊ": 1642,
      "እስር": 1643,
      "የትምህርት": 1644,
      "ሰል": 1645,
      "ከት": 1646,
      "የፌዴራል": 1647,
      "ፈጠረ": 1648,
      "ትክክለ": 1649,
      "ሕግ": 1650,
      "የእ": 1651,
      "በራ": 1652,
      "ላቀሉ": 1653,
      "ቦታ": 1654,
      "ዩት": 1655,
      "ሞች": 1656,
      "በመሆኑ": 1657,
      "ዝር": 1658,
      "የደቡብ": 1659,
      "ስለ": 1660,
      "ተወያዩ": 1661,
      "ገበያ": 1662,
      "ክልሎች": 1663,
      "ቀናት": 1664,
      "የጤና": 1665,
      "ድረስ": 1666,
      "እንደሚገባ": 1667,
      "አክ": 1668,
      "ኢትዮጵያውያን": 1669,
      "ምሌ": 1670,
      "የልማት": 1671,
      "ካሪ": 1672,
      "ag": 1673,
      "በትዊተር": 1674,
      "በቁጥጥር": 1675,
      "ተኞች": 1676,
      "ባንኩ": 1677,
      "ማሳ": 1678,
      "ሰር": 1679,
      "ሰብስ": 1680,
      "ጠቃ": 1681,
      "ዎቹ": 1682,
      "11": 1683,
      "ብራ": 1684,
      "ጥቅምት": 1685,
      "ፕሮጀክት": 1686,
      "ተንቀሳ": 1687,
      "ደርግ": 1688,
      "ቢሊዮን": 1689,
      "ያገኘ": 1690,
      "ac": 1691,
      "ክፍለ": 1692,
      "ቁር": 1693,
      "ህፈት": 1694,
      "ለይ": 1695,
      "ደት": 1696,
      "ራን": 1697,
      "ብቻ": 1698,
      "መልሶ": 1699,
      "ጠናከር": 1700,
      "ኬሽን": 1701,
      "ምርት": 1702,
      "በረሰብ": 1703,
      "መም": 1704,
      "ኤል": 1705,
      "ድሞ": 1706,
      "የተፈ": 1707,
      "አት": 1708,
      "ተማሪ": 1709,
      "ይብ": 1710,
      "ስን": 1711,
      "ቧል": 1712,
      "ስራት": 1713,
      "ፕሮጀክ": 1714,
      "ሐምሌ": 1715,
      "ፈቃ": 1716,
      "በታል": 1717,
      "ዳሴ": 1718,
      "መሪ": 1719,
      "ባለሙ": 1720,
      "ግንኙነቶችን": 1721,
      "ከላከል": 1722,
      "ለመቀነስ": 1723,
      "ግለሰ": 1724,
      "ነበር": 1725,
      "ወገ": 1726,
      "የከተማ": 1727,
      "መስከረም": 1728,
      "ዳጁን": 1729,
      "ግድብ": 1730,
      "ተንቀሳቃሽ": 1731,
      "ያድር": 1732,
      "ደግሞ": 1733,
      "ሳብ": 1734,
      "nt": 1735,
      "ዶች": 1736,
      "ነትን": 1737,
      "ወጣቶች": 1738,
      "ቅስ": 1739,
      "ብቶ": 1740,
      "ዘው": 1741,
      "ጉባዔ": 1742,
      "ያድርጉ": 1743,
      "አሸባሪው": 1744,
      "ምርመራ": 1745,
      "ታር": 1746,
      "ላን": 1747,
      "መሰረት": 1748,
      "ትክክለኛውን": 1749,
      "ምስሎችን": 1750,
      "ሽከር": 1751,
      "የዩቲዩብ": 1752,
      "ዘመቻ": 1753,
      "ጎብኙ": 1754,
      "ይቀላቀሉ": 1755,
      "ክራይብ": 1756,
      "ሰብስክራይብ": 1757,
      "ገጻችን": 1758,
      "ደህ": 1759,
      "ኤሌክትሪክ": 1760,
      "የኦሮሚያ": 1761,
      "ይወዳጁን": 1762,
      "14": 1763,
      "ብቶች": 1764,
      "ይጎብኙ": 1765,
      "ግንቦት": 1766,
      "ገኝ": 1767,
      "መረጃዎች": 1768,
      "ገፃችን": 1769,
      "ሰጠ": 1770,
      "ዝግጅት": 1771,
      "በነ": 1772,
      "ብርሃ": 1773,
      "ወስ": 1774,
      "መጋ": 1775,
      "ካሄደው": 1776,
      "ኮን": 1777,
      "ከፌስቡክ": 1778,
      "ገለጹት": 1779,
      "አህመድ": 1780,
      "በአማራ": 1781,
      "የመንግሥት": 1782,
      "ባል": 1783,
      "ሰራዊት": 1784,
      "ክምና": 1785,
      "አስቸ": 1786,
      "ዘጋጀ": 1787,
      "ውጭ": 1788,
      "ቀት": 1789,
      "ሕዝ": 1790,
      "ኢንቨስትመንት": 1791,
      "ቡን": 1792,
      "ተመር": 1793,
      "ይገባል": 1794,
      "ሀገራ": 1795,
      "ላቸውን": 1796,
      "ያያዘ": 1797,
      "ዘላ": 1798,
      "ሰኔ": 1799,
      "እንደሌ": 1800,
      "ደመቀ": 1801,
      "ዳታ": 1802,
      "ችሁ": 1803,
      "ይዞ": 1804,
      "አማ": 1805,
      "ይወት": 1806,
      "ራንስፖርት": 1807,
      "ሶማሌ": 1808,
      "ገለፀ": 1809,
      "ጣት": 1810,
      "አቋ": 1811,
      "መንገ": 1812,
      "ነዋሪዎች": 1813,
      "በክልሉ": 1814,
      "ቲት": 1815,
      "መኮንን": 1816,
      "ከፋ": 1817,
      "25": 1818,
      "ሰነ": 1819,
      "ስፋ": 1820,
      "ባለፈው": 1821,
      "እንደሆነ": 1822,
      "የነበሩ": 1823,
      "በተያያዘ": 1824,
      "የአሜሪካ": 1825,
      "ማስተ": 1826,
      "ከፈ": 1827,
      "ሳቸው": 1828,
      "ጠበቅ": 1829,
      "በደቡብ": 1830,
      "ኮች": 1831,
      "የሚያስችል": 1832,
      "ከለ": 1833,
      "ቻል": 1834,
      "ላጊ": 1835,
      "መሠረት": 1836,
      "ቁጥር": 1837,
      "ጡት": 1838,
      "ያገኘነው": 1839,
      "ዘመን": 1840,
      "የካቲት": 1841,
      "በጎ": 1842,
      "የፀጥታ": 1843,
      "ቱሪ": 1844,
      "ወቁ": 1845,
      "ቢት": 1846,
      "ደሩ": 1847,
      "መለከተ": 1848,
      "አዋጅ": 1849,
      "ሕገ": 1850,
      "ባለፉት": 1851,
      "የተባ": 1852,
      "ከባ": 1853,
      "ፖር": 1854,
      "የነበረውን": 1855,
      "ቤተ": 1856,
      "አላማ": 1857,
      "አሰ": 1858,
      "ደህንነት": 1859,
      "ገው": 1860,
      "ኮሙ": 1861,
      "ነች": 1862,
      "ተጠቅ": 1863,
      "ስማማ": 1864,
      "ጻሚ": 1865,
      "13": 1866,
      "ቃሴ": 1867,
      "ኃይ": 1868,
      "ዙር": 1869,
      "የፖለቲካ": 1870,
      "ስብሰባ": 1871,
      "ድርሻ": 1872,
      "ስኬታማ": 1873,
      "24": 1874,
      "ለመፍ": 1875,
      "ፈተና": 1876,
      "እንቅስ": 1877,
      ")።": 1878,
      "ኤም": 1879,
      "ጠን": 1880,
      "ልዑ": 1881,
      "ዝም": 1882,
      "ሰን": 1883,
      "ምክክር": 1884,
      "ፕሬዝዳንት": 1885,
      "እንቅስቃሴ": 1886,
      "ሮችን": 1887,
      "የተፈጠረ": 1888,
      "ጣይ": 1889,
      "በህ": 1890,
      "ሩት": 1891,
      "ሚና": 1892,
      "ኢኮኖሚ": 1893,
      "የቆ": 1894,
      "ቦርድ": 1895,
      "መሪዎች": 1896,
      "በሌ": 1897,
      "ዕለት": 1898,
      "ጀም": 1899,
      "ሀገሪቱ": 1900,
      "ንጉ": 1901,
      "ፍላ": 1902,
      "ፕሎ": 1903,
      "ጠቁ": 1904,
      "ደርጉ": 1905,
      "ማኖ": 1906,
      "ብሄ": 1907,
      "ውና": 1908,
      "or": 1909,
      "ኤታ": 1910,
      "ዲፕሎ": 1911,
      "ድርጅቶች": 1912,
      "የተፈጠረውን": 1913,
      "በስ": 1914,
      "ጣቢያ": 1915,
      "የመንግስት": 1916,
      "ትስ": 1917,
      "ፌደ": 1918,
      "ram": 1919,
      "ገነባ": 1920,
      "መልከ": 1921,
      "Ma": 1922,
      "በም": 1923,
      "ተጠቃ": 1924,
      "ብሮ": 1925,
      "ደበኛ": 1926,
      "ጨረ": 1927,
      "ኮም": 1928,
      "እንዲሆን": 1929,
      "ተፈጸ": 1930,
      "በኦሮሚያ": 1931,
      "የባ": 1932,
      "ሀይሎች": 1933,
      "መዘ": 1934,
      "በተለይ": 1935,
      "በአል": 1936,
      "ሃላፊ": 1937,
      "ቆጣ": 1938,
      "ተፈና": 1939,
      "በቃ": 1940,
      "ኖር": 1941,
      "እንደሚያ": 1942,
      "ሀገራዊ": 1943,
      "መባቸው": 1944,
      "inst": 1945,
      "በትግራይ": 1946,
      "ተገኝ": 1947,
      "ግጭት": 1948,
      "በመግለጫ": 1949,
      "ሰሩ": 1950,
      "ህዝቦች": 1951,
      "ለፈጣን": 1952,
      "ጹሃ": 1953,
      "ዲፕሎማ": 1954,
      "ተጠቃሚ": 1955,
      "ንብረት": 1956,
      "ረጋገጥ": 1957,
      "ደው": 1958,
      "መስመር": 1959,
      "ኖሩ": 1960,
      "ቀል": 1961,
      "bit": 1962,
      "የሚለው": 1963,
      "ኝት": 1964,
      "ኳይ": 1965,
      "3Ma": 1966,
      "7Q": 1967,
      "TW": 1968,
      "ጽህፈት": 1969,
      "3Ma7Q": 1970,
      "3Ma7QTW": 1971,
      "ሥልጣን": 1972,
      "አማራ": 1973,
      "አስረ": 1974,
      "ስጠት": 1975,
      "ማህበራዊ": 1976,
      "የመከላከያ": 1977,
      "ፍላጎ": 1978,
      "መፈጸም": 1979,
      "ስትራ": 1980,
      "18": 1981,
      "ባና": 1982,
      "የሆኑ": 1983,
      "በበኩ": 1984,
      "ሕፈት": 1985,
      "23": 1986,
      "ያዙ": 1987,
      "ደገ": 1988,
      "ገኘው": 1989,
      "ሁለተኛ": 1990,
      "አዳነች": 1991,
      "አባል": 1992,
      "ይማኖ": 1993,
      "መለስ": 1994,
      "መሆናቸውን": 1995,
      "ቅረብ": 1996,
      "ጀንሲ": 1997,
      "ቫይ": 1998,
      "ለቀ": 1999,
      "የግብርና": 2000,
      "ለማሳ": 2001,
      "ድብደ": 2002,
      "ነሳ": 2003,
      "ቲክቶ": 2004,
      "ጽሕፈት": 2005,
      "ከተሞች": 2006,
      "ምንጭ": 2007,
      "ቲክቶክ": 2008,
      "ኢንስታ": 2009,
      "ኢንስታግራም": 2010,
      "ኤጀንሲ": 2011,
      "የምግብ": 2012,
      "ይገኛ": 2013,
      "አስቸኳይ": 2014,
      "kt": 2015,
      "መልዕክት": 2016,
      "/@": 2017,
      "tikt": 2018,
      "agram": 2019,
      "instagram": 2020,
      "tiktok": 2021,
      "ቀጠል": 2022,
      "በሪያ": 2023,
      "እንዳይ": 2024,
      "ሞክራ": 2025,
      "መንግስ": 2026,
      "ምዕራብ": 2027,
      "ውጤት": 2028,
      "ያመላክ": 2029,
      "መድረክ": 2030,
      "ተካሄደ": 2031,
      "የሚገልጸው": 2032,
      "ካል": 2033,
      "በትን": 2034,
      "ድሬ": 2035,
      "አስፈላጊ": 2036,
      "እንደሚወሰድ": 2037,
      "ፈቃድ": 2038,
      "የእን": 2039,
      "የገንዘብ": 2040,
      "ሦስት": 2041,
      "አስፈጻሚ": 2042,
      "በመግለጫው": 2043,
      "ካም": 2044,
      "17": 2045,
      "22": 2046,
      "ማመልከ": 2047,
      "ሎት": 2048,
      "በደ": 2049,
      "ለውጥ": 2050,
      "ቋቋም": 2051,
      "ያመላክታል": 2052,
      "በባንኩ": 2053,
      "ያላቸው": 2054,
      "ጉብ": 2055,
      "እንደሚመረ": 2056,
      "እንደሌለበት": 2057,
      "ትኩረት": 2058,
      "የሕዝብ": 2059,
      "ዘላቂ": 2060,
      "ያዊ": 2061,
      "ደቡበት": 2062,
      "መዝ": 2063,
      "ሲል": 2064,
      "ኳን": 2065,
      "የሀገር": 2066,
      "ግዛት": 2067,
      "50": 2068,
      "እንደተፈጸ": 2069,
      "ትስስር": 2070,
      "ነገረ": 2071,
      "የሰብዓዊ": 2072,
      "ህወሓት": 2073,
      "ወጡ": 2074,
      "መሥ": 2075,
      "16": 2076,
      "መዋል": 2077,
      "ፌደራል": 2078,
      "ወል": 2079,
      "ቂቅ": 2080,
      "ጓል": 2081,
      "ብረተሰ": 2082,
      "ነፃ": 2083,
      "ሜትር": 2084,
      "ርክ": 2085,
      "ከማ": 2086,
      "ድገ": 2087,
      "ተመርምሮ": 2088,
      "መጋቢት": 2089,
      "እንደተፈጸመባቸው": 2090,
      "ልኛ": 2091,
      "ገባለት": 2092,
      "ድብደባና": 2093,
      "ብልጽ": 2094,
      "በበኩላቸው": 2095,
      "ዲያ": 2096,
      "ተወያይ": 2097,
      "ሩሲያ": 2098,
      "ተገብቶ": 2099,
      "ብልጽግና": 2100,
      "ብሪካ": 2101,
      "የስ": 2102,
      "ደኅ": 2103,
      "መጣሱን": 2104,
      "እያካሄዱ": 2105,
      "እንደሚወሰድም": 2106,
      "እንደተገባለት": 2107,
      "ቱሪዝም": 2108,
      "ማመልከቱን": 2109,
      "ደበደቡበት": 2110,
      "እንደተደበደቡበት": 2111,
      "እንደሚመረመር": 2112,
      "ልኛልም": 2113,
      "ተገብቶልኛልም": 2114,
      "በአንድ": 2115,
      "ተግባር": 2116,
      "በዋል": 2117,
      "አሻ": 2118,
      "ዳማ": 2119,
      "አመራር": 2120,
      "ወይም": 2121,
      "ተስፋ": 2122,
      "es": 2123,
      "ጠቀምበት": 2124,
      "ሆነም": 2125,
      "ፊያ": 2126,
      "ዛሬው": 2127,
      "ጎንደር": 2128,
      "አቤ": 2129,
      "ፌዴሪ": 2130,
      "አድ": 2131,
      "ኢትዮጵያን": 2132,
      "መሬት": 2133,
      "ቆም": 2134,
      "እየተሰራ": 2135,
      "ሥርዓት": 2136,
      "ተጠቅሞ": 2137,
      "ህብረት": 2138,
      "ጎበ": 2139,
      "ትርክት": 2140,
      "እርስ": 2141,
      "ምግብ": 2142,
      "መስማማ": 2143,
      "የሲ": 2144,
      "ርጦ": 2145,
      "ባለሙያዎች": 2146,
      "አቅም": 2147,
      "ሥነ": 2148,
      "ትብብር": 2149,
      "21": 2150,
      "ረዳ": 2151,
      "ይናንስ": 2152,
      "ሆኖ": 2153,
      "ጹሃንን": 2154,
      "ኩባንያ": 2155,
      "ፎር": 2156,
      "መዋ": 2157,
      "ኔታንያ": 2158,
      "ደረግነው": 2159,
      "ፈን": 2160,
      "መታ": 2161,
      "ኔታንያሁ": 2162,
      "አያ": 2163,
      "የቁ": 2164,
      "ፕላን": 2165,
      "አቀፉ": 2166,
      "መደበኛ": 2167,
      "ረሪ": 2168,
      "ቀው": 2169,
      "ሮፓ": 2170,
      "ደብ": 2171,
      "ሶስት": 2172,
      "ህር": 2173,
      "ግለሰቦች": 2174,
      "ባለው": 2175,
      "ለወታደራዊ": 2176,
      "የቀድሞ": 2177,
      "ደኅንነት": 2178,
      "ኢትዮጵያዊ": 2179,
      "ያደረግነው": 2180,
      "ዎችና": 2181,
      "አትሌ": 2182,
      "በዛሬው": 2183,
      "ዕር": 2184,
      "አቀረ": 2185,
      "ዱን": 2186,
      "የመጀመሪያ": 2187,
      "መብት": 2188,
      "ካባቢ": 2189,
      "አልሆነም": 2190,
      "የሚገኘ": 2191,
      "ቀረቡ": 2192,
      "ዘርፉ": 2193,
      "ገንባት": 2194,
      "ተጠቅሞበታል": 2195,
      "ተደር": 2196,
      "የንጹሃንን": 2197,
      "ታው": 2198,
      "\"-": 2199,
      "ይነት": 2200,
      "ፍራ": 2201,
      "ገለጸየንጹሃንን": 2202,
      "አልሽፋ": 2203,
      "የሀስት": 2204,
      "ነገረግን": 2205,
      "ኔታንያሁ42ኛ": 2206,
      "ment": 2207,
      "ተፈራ": 2208,
      "ተባ": 2209,
      "ፋብሪካ": 2210,
      "ቡና": 2211,
      "ከራ": 2212,
      "ወሳ": 2213,
      "ይጠቀምበት": 2214,
      "ዳዋ": 2215,
      "ሠራዊት": 2216,
      "ከኢትዮጵያ": 2217,
      "ሙስና": 2218,
      "መቻ": 2219,
      "ቢሲ": 2220,
      "ምላ": 2221,
      "ስልጣን": 2222,
      "ተካ": 2223,
      "የነበረው": 2224,
      "ተጠና": 2225,
      "ካን": 2226,
      "የጦር": 2227,
      "ፈር": 2228,
      "ሰላማዊ": 2229,
      "ዲና": 2230,
      "ረቂቅ": 2231,
      "ምንት": 2232,
      "አቤቤ": 2233,
      "ከአሜሪካ": 2234,
      "መሰረተ": 2235,
      "ሐሴ": 2236,
      "ለውም": 2237,
      "bo": 2238,
      "ቡቲ": 2239,
      "ውይይ": 2240,
      "ኮሚሽነር": 2241,
      "ሮና": 2242,
      "ዴኤታ": 2243,
      "የሽብር": 2244,
      "ተቋርጦ": 2245,
      "ገናኛ": 2246,
      "ቪድ": 2247,
      "የምርጫ": 2248,
      "ዴሞክራ": 2249,
      "መኖ": 2250,
      "ስራቅ": 2251,
      "ed": 2252,
      "አመት": 2253,
      "ማይ": 2254,
      "ተማሪዎች": 2255,
      "መግባ": 2256,
      "ማድረግ": 2257,
      "ወገኖች": 2258,
      "ምቤ": 2259,
      "መወሰ": 2260,
      "ዝያ": 2261,
      "28": 2262,
      "27": 2263,
      "ዘንድ": 2264,
      "ፎች": 2265,
      "ጓዴ": 2266,
      "ችው": 2267,
      "በዓለም": 2268,
      "ተጠርጣ": 2269,
      "ላላ": 2270,
      "ብሄራዊ": 2271,
      "and": 2272,
      "fac": 2273,
      "በጥ": 2274,
      "ገሪቱ": 2275,
      "ስራዎች": 2276,
      "ሪፖር": 2277,
      "ማለ": 2278,
      "ላቁ": 2279,
      "ድሬዳዋ": 2280,
      "እው": 2281,
      "ኢንተር": 2282,
      "ረንጓዴ": 2283,
      "ጠቃላይ": 2284,
      "የቀረ": 2285,
      "ነሐሴ": 2286,
      "ለማስቀጠል": 2287,
      "ቂያ": 2288,
      "ድስት": 2289,
      "ተሽከር": 2290,
      "ጀር": 2291,
      "ሰጡ": 2292,
      "ሚያዝያ": 2293,
      "ጋዜ": 2294,
      "tion": 2295,
      "ማስከበር": 2296,
      "book": 2297,
      "አጠና": 2298,
      "ኃላፊዎች": 2299,
      "ነገር": 2300,
      "ደጋ": 2301,
      "ንቀሳቀ": 2302,
      "ሟል": 2303,
      "ፕሮግራም": 2304,
      "ተጨማሪ": 2305,
      "ቢሆን": 2306,
      "ጠው": 2307,
      "ተሳት": 2308,
      "አራት": 2309,
      "ነትና": 2310,
      "ጣል": 2311,
      "ቸዋል": 2312,
      "ሁለቱ": 2313,
      "ቃቤ": 2314,
      "አካል": 2315,
      "ምቤላ": 2316,
      "ጋል": 2317,
      "ሳቁ": 2318,
      "ቀደም": 2319,
      "ከቱ": 2320,
      "የኢትዮጵያን": 2321,
      "ፍላጎት": 2322,
      "ar": 2323,
      "አስተባ": 2324,
      "አስተዋ": 2325,
      "ማህበረሰብ": 2326,
      "አስተዳደሩ": 2327,
      "በመሆን": 2328,
      "ሳተፉ": 2329,
      "ebook": 2330,
      "ገለፁ": 2331,
      "በብ": 2332,
      "ውጪ": 2333,
      "ለመጀመር": 2334,
      "ቀጥል": 2335,
      "facebook": 2336,
      "የኢፌዴሪ": 2337,
      "በሰላም": 2338,
      "በቅር": 2339,
      "ኬንያ": 2340,
      "ፖራ": 2341,
      "ፓርቲዎች": 2342,
      "ሸኔ": 2343,
      "ለማር": 2344,
      "መርሐ": 2345,
      "ሳምንት": 2346,
      "በለ": 2347,
      "የትግራይ": 2348,
      "ገልፀ": 2349,
      "ተባለ": 2350,
      "ችንን": 2351,
      "ጠናቀቁ": 2352,
      "በአፍሪካ": 2353,
      "ኔራል": 2354,
      "of": 2355,
      "ተን": 2356,
      "ትዊተር": 2357,
      "ያስፖራ": 2358,
      "ጥሮ": 2359,
      "ትውል": 2360,
      "ተገና": 2361,
      "ቀረበ": 2362,
      "en": 2363,
      "ይገኛል": 2364,
      "ነግ": 2365,
      "መሳሪያ": 2366,
      "ማረ": 2367,
      "ስልጠና": 2368,
      "ይማኖት": 2369,
      "29": 2370,
      "ዩትዩብ": 2371,
      "ፕሮጀክቶች": 2372,
      "ባሲ": 2373,
      "አስታወቁ": 2374,
      "አስመል": 2375,
      "ምተዋል": 2376,
      "ሰዓት": 2377,
      "ጠረ": 2378,
      "በመካ": 2379,
      "ብረተሰቡ": 2380,
      "ወይዘ": 2381,
      "አረ": 2382,
      "ጆች": 2383,
      "ራች": 2384,
      "ጠናቀቅ": 2385,
      "ንጉል": 2386,
      "ጠሩ": 2387,
      "40": 2388,
      "የማዕ": 2389,
      "ወያ": 2390,
      "ሻንጉል": 2391,
      "ህለ": 2392,
      "ጋና": 2393,
      "ጉም": 2394,
      "ፈፀ": 2395,
      "ግንባር": 2396,
      "መስረት": 2397,
      "በእር": 2398,
      "ጻጸ": 2399,
      "በተመለከተ": 2400,
      "ጉብኝት": 2401,
      "ከበረ": 2402,
      "ታይ": 2403,
      "የሆነው": 2404,
      "ተግባራዊ": 2405,
      "ሰለ": 2406,
      "ገዋል": 2407,
      "እየተደረገ": 2408,
      "ቀጥተኛ": 2409,
      "ተብሎ": 2410,
      "26": 2411,
      "ቀሉ": 2412,
      "ኪሎ": 2413,
      "ሳይንስ": 2414,
      "የግል": 2415,
      "ቶን": 2416,
      "ቋሚ": 2417,
      "ድርጊ": 2418,
      "ወይዘሮ": 2419,
      "ክልላዊ": 2420,
      "የሆነ": 2421,
      "በእ": 2422,
      "ዕቅድ": 2423,
      "መንግስታት": 2424,
      "አዲ": 2425,
      "ጫና": 2426,
      "የኢኮኖሚ": 2427,
      "ውጥረት": 2428,
      "አለመ": 2429,
      "ኅብረት": 2430,
      "ኒያ": 2431,
      "መለሱ": 2432,
      "ጀመሩ": 2433,
      "ተስማምተዋል": 2434,
      "ሂደት": 2435,
      "አምስት": 2436,
      "መልኩ": 2437,
      "ድገት": 2438,
      "ሰዋል": 2439,
      "ጉሙ": 2440,
      "ማሻሻ": 2441,
      "ኃይሎች": 2442,
      "እንደገለጹት": 2443,
      "አክለውም": 2444,
      "ta": 2445,
      "ፌዴሬሽን": 2446,
      "ሻገር": 2447,
      "ኤምባሲ": 2448,
      "በየ": 2449,
      "ኢዜ": 2450,
      "ከላቸው": 2451,
      "ጮች": 2452,
      "ስትና": 2453,
      "ተወያይተዋል": 2454,
      "ቫይረስ": 2455,
      "የህዝብ": 2456,
      "ምረት": 2457,
      "መረቀ": 2458,
      "ሃት": 2459,
      "በሽ": 2460,
      "ለመመስረት": 2461,
      "ቻቸው": 2462,
      "ንና": 2463,
      "ሀብት": 2464,
      "የግንኙነት": 2465,
      "የውሃ": 2466,
      "በወቅታዊ": 2467,
      "ቢሆንም": 2468,
      "ሸባሪው": 2469,
      "አሜሪካና": 2470,
      "ንግግር": 2471,
      "ይዋን": 2472,
      "ሊቀ": 2473,
      "ኩን": 2474,
      "ዜጎችን": 2475,
      "ተደረገ": 2476,
      "ምላሽ": 2477,
      "ዳሚ": 2478,
      "አስተባባሪ": 2479,
      "የአየር": 2480,
      "መሆኗ": 2481,
      "ክታር": 2482,
      "እርዳታ": 2483,
      "ችግሮች": 2484,
      "በሙሉ": 2485,
      "ጨዋ": 2486,
      "ከነ": 2487,
      "የጎ": 2488,
      "ዘውዴ": 2489,
      "መስጠት": 2490,
      "መስማማታቸው": 2491,
      "ግንኙነቶች": 2492,
      "መሰብ": 2493,
      "ኮርፖሬሽን": 2494,
      "ድርድር": 2495,
      "ለማርገብ": 2496,
      "ቁሳቁ": 2497,
      "ዓላማ": 2498,
      "ከናወኑ": 2499,
      "በመካከላቸው": 2500,
      "ጉን": 2501,
      "ስርዓት": 2502,
      "ኒኬሽን": 2503,
      "ዷል": 2504,
      "to": 2505,
      "ቤኒ": 2506,
      "ባባይ": 2507,
      "ብለው": 2508,
      "ሻለ": 2509,
      "የኤሌክትሪክ": 2510,
      "ፈረን": 2511,
      "ሙን": 2512,
      "አገራት": 2513,
      "አስረድ": 2514,
      "ሳስ": 2515,
      "ቀርብ": 2516,
      "መሠረተ": 2517,
      "በእርሳቸው": 2518,
      "አቅርቦት": 2519,
      "ተገናኙ": 2520,
      "ስተኛ": 2521,
      "ጎበኙ": 2522,
      "ጠይ": 2523,
      "ፅግና": 2524,
      "የተባበሩት": 2525,
      "መክ": 2526,
      "መደረጉ": 2527,
      "ከታይዋን": 2528,
      "አቋርጣ": 2529,
      "መነ": 2530,
      "ብልፅግና": 2531,
      "ብሮድ": 2532,
      "አቋርጣለች": 2533,
      "ተገናኙአሜሪካ": 2534,
      "ወጣው": 2535,
      "ለመፍታት": 2536,
      "ከባድ": 2537,
      "ጉሙዝ": 2538,
      "ተሰብ": 2539,
      "አጋ": 2540,
      "ተገለፀ": 2541,
      "ቀፍ": 2542,
      "በፍ": 2543,
      "ሥራዎች": 2544,
      "ኮሚሽኑ": 2545,
      "ተግባራት": 2546,
      "ch": 2547,
      "ከ3": 2548,
      "በሆነ": 2549,
      "መሰረ": 2550,
      "ቤኒሻንጉል": 2551,
      "ሶማ": 2552,
      "የአው": 2553,
      "ፓርላማ": 2554,
      "አብዲ": 2555,
      "አፈጻጸ": 2556,
      "ፍን": 2557,
      "ዳያስፖራ": 2558,
      "መርሃ": 2559,
      "ስንዴ": 2560,
      "ድንበር": 2561,
      "ዲፕሎማሲ": 2562,
      ")፣": 2563,
      "ጋይ": 2564,
      "ለመከላከል": 2565,
      "ለመስጠት": 2566,
      "ኢንጂ": 2567,
      "ሪፖርተር": 2568,
      "ኅዳር": 2569,
      "መለክ": 2570,
      "ሳዑ": 2571,
      "አረጋ": 2572,
      "እየሰራ": 2573,
      "መልስ": 2574,
      "ጠብ": 2575,
      "ያላት": 2576,
      "ጠራ": 2577,
      "ብሮድካ": 2578,
      "ካሪዎች": 2579,
      "ውሃ": 2580,
      "ሠራተኞች": 2581,
      "ነሱ": 2582,
      "እንደሚገኝ": 2583,
      "በቀጣይ": 2584,
      "ሳዑዲ": 2585,
      "ጥበቃ": 2586,
      "ደገፍ": 2587,
      "የክ": 2588,
      "አሉ": 2589,
      "በማለት": 2590,
      "de": 2591,
      "ባሉ": 2592,
      "ግብረ": 2593,
      "፤››": 2594,
      "ቦችን": 2595,
      "ህለወርቅ": 2596,
      "ወለ": 2597,
      "ብረተሰብ": 2598,
      "የቻይና": 2599,
      "ክፍሎች": 2600,
      "እንደም": 2601,
      "በተለይም": 2602,
      "ክፍያ": 2603,
      "ገልፀዋል": 2604,
      "ብድር": 2605,
      "ጠኛ": 2606,
      "ሰቡ": 2607,
      "ቀጣ": 2608,
      "በሀ": 2609,
      "ተደራ": 2610,
      "የገቢ": 2611,
      "ያቸው": 2612,
      "ፉን": 2613,
      "የብሔራዊ": 2614,
      "ተግ": 2615,
      "ያዝ": 2616,
      "ዳሪ": 2617,
      "ኩስ": 2618,
      "ፖሊሲ": 2619,
      "ፃሚ": 2620,
      "ድርቅ": 2621,
      "ዩኒኬሽን": 2622,
      "ማኅበር": 2623,
      "ኮርፖሬት": 2624,
      "መጡ": 2625,
      "ባዊ": 2626,
      "ሁኑ": 2627,
      "በመቀ": 2628,
      "አስመልክቶ": 2629,
      "ክርስቲ": 2630,
      "ዋስትና": 2631,
      "ባለሥልጣን": 2632,
      "መፍ": 2633,
      "የመስ": 2634,
      "ኮሙኒኬሽን": 2635,
      "ማሽ": 2636,
      "ገደ": 2637,
      "አሻራ": 2638,
      "ኪያ": 2639,
      "በአፋር": 2640,
      "አደባባይ": 2641,
      "አውሮ": 2642,
      "እንደነበር": 2643,
      "ለገ": 2644,
      "በራት": 2645,
      "የነዳጅ": 2646,
      "as": 2647,
      "ባደረጉት": 2648,
      "ትራንስፖርት": 2649,
      "ዘግቧል": 2650,
      "መጥ": 2651,
      "የሞ": 2652,
      "ባለድርሻ": 2653,
      "በረታ": 2654,
      "ማዕከ": 2655,
      "ባቸውን": 2656,
      "ደቀ": 2657,
      "ሩክ": 2658,
      "ሰብሳቢ": 2659,
      "ዓመቱ": 2660,
      "የማይ": 2661,
      "ቴሌኮም": 2662,
      "አንድነት": 2663,
      "አገሮች": 2664,
      "ማሩ": 2665,
      "ያመለክ": 2666,
      "ዋሳ": 2667,
      "አድርገዋል": 2668,
      "ስነ": 2669,
      "ሚኒስቴሩ": 2670,
      "ሰላምና": 2671,
      "ሥርዓ": 2672,
      "ነቱን": 2673,
      "ዋሉ": 2674,
      "ደርስ": 2675,
      "ችግኝ": 2676,
      "ተሳትፎ": 2677,
      "::": 2678,
      "ቅድመ": 2679,
      "ካራ": 2680,
      "ሆና": 2681,
      "አዊ": 2682,
      "ሰነድ": 2683,
      "የፌደራል": 2684,
      "ፕሪ": 2685,
      "ተጀመረ": 2686,
      "ተከሳ": 2687,
      "ግባር": 2688,
      "ጎዱ": 2689,
      "ጣቂ": 2690,
      "ሙት": 2691,
      "ነራል": 2692,
      "ውድድር": 2693,
      "ህይወት": 2694,
      "መልክ": 2695,
      "ለውን": 2696,
      "በኮ": 2697,
      "እንድ": 2698,
      "ያመለክታል": 2699,
      "ለመስራት": 2700,
      "ሪፖርት": 2701,
      "ታወቀ": 2702,
      "ቅርን": 2703,
      "ሆቴ": 2704,
      "ከውጭ": 2705,
      "ጊዜያዊ": 2706,
      "ሰት": 2707,
      "ዘን": 2708,
      "ትልቅ": 2709,
      "ቆጣጠር": 2710,
      "ቀደ": 2711,
      "አርሶ": 2712,
      "በበ": 2713,
      "ያስፈል": 2714,
      "የሶማሌ": 2715,
      "የፋይናንስ": 2716,
      "የኢንዱስትሪ": 2717,
      "ሚን": 2718,
      "ታደሰ": 2719,
      "ስቲንግ": 2720,
      "የተመራ": 2721,
      "ለሚገኙ": 2722,
      "ሶማሊያ": 2723,
      "ፈታ": 2724,
      "መምሪያ": 2725,
      "በቅርቡ": 2726,
      "ዝቅ": 2727,
      "የክልል": 2728,
      "ለማጠናከር": 2729,
      "ረመ": 2730,
      "are": 2731,
      "መስራት": 2732,
      "ከናወን": 2733,
      "ሻሻል": 2734,
      "ተስፋዬ": 2735,
      "ገብረ": 2736,
      "የተገኙ": 2737,
      "ጨዋታ": 2738,
      "መመ": 2739,
      "ንዳ": 2740,
      "ኦር": 2741,
      "ኩረት": 2742,
      "የወ": 2743,
      "ቦር": 2744,
      "ተባበር": 2745,
      "ሠላ": 2746,
      "ወጣት": 2747,
      "አድርጓል": 2748,
      "ረር": 2749,
      "በጅ": 2750,
      "እያደረገ": 2751,
      "ጄኔራል": 2752,
      "ቅናቄ": 2753,
      "ሕወሓት": 2754,
      "ፋና": 2755,
      "በሰሜን": 2756,
      "ዲናዋ": 2757,
      "ኢዜአ": 2758,
      "የዓ": 2759,
      "500": 2760,
      "ተቋም": 2761,
      "ብሮድካስቲንግ": 2762,
      "ሃይል": 2763,
      "ልማ": 2764,
      "አዛ": 2765,
      "ትዮሽ": 2766,
      "ስርዓ": 2767,
      "ለታ": 2768,
      "ሌላ": 2769,
      "ድምጽ": 2770,
      "ላለፉት": 2771,
      "ብይ": 2772,
      "ስድስት": 2773,
      "ናይ": 2774,
      "ጣሊያ": 2775,
      "መቆ": 2776,
      "ቡር": 2777,
      "ኩባንያዎች": 2778,
      "ሲያዊ": 2779,
      "አስረድተዋል": 2780,
      "ቤተሰ": 2781,
      "ፓርክ": 2782,
      "ታኅ": 2783,
      "60": 2784,
      "ሰኞ": 2785,
      "ዲጂ": 2786,
      "አደረጉ": 2787,
      "የጥቁር": 2788,
      "ዘመናዊ": 2789,
      "ተገኝተዋል": 2790,
      "የሚገኘው": 2791,
      "ራር": 2792,
      "እም": 2793,
      "ጠበ": 2794,
      "ምርምር": 2795,
      "ዝግጁ": 2796,
      "በሚያ": 2797,
      "በሀገር": 2798,
      "በረው": 2799,
      "ሰብአዊ": 2800,
      "እንግ": 2801,
      "እንደማይ": 2802,
      "ሰበ": 2803,
      "ቦሌ": 2804,
      "ተያ": 2805,
      "አመ": 2806,
      "የጠቅላይ": 2807,
      "ልዑክ": 2808,
      "ያደረገ": 2809,
      "አንዱ": 2810,
      "ቅርንጫ": 2811,
      "ህገ": 2812,
      "ፈዋል": 2813,
      "ሰልፍ": 2814,
      "መጠን": 2815,
      "መንገዶች": 2816,
      "መጫ": 2817,
      "ዕድል": 2818,
      "ሊግ": 2819,
      "ሶች": 2820,
      "በን": 2821,
      "ንትሮ": 2822,
      "መላክቷል": 2823,
      "ለሀገር": 2824,
      "ራይ": 2825,
      "ሷል": 2826,
      "ዘጋጅ": 2827,
      "ኩንታል": 2828,
      "ከናወነ": 2829,
      "ክብደ": 2830,
      "ምንም": 2831,
      "ላለፉ": 2832,
      "ኃን": 2833,
      "የአካባቢ": 2834,
      "በውይይ": 2835,
      "ማሻሻያ": 2836,
      "ጨረሻ": 2837,
      "ካሳ": 2838,
      "አብዱ": 2839,
      "አስፈፃሚ": 2840,
      "ዝርዝር": 2841,
      "ራቸው": 2842,
      "ኒክ": 2843,
      "ተሳ": 2844,
      "የሚኒ": 2845,
      "ለማረጋገጥ": 2846,
      "ኢትዮጵያዊያን": 2847,
      "የገለጹት": 2848,
      "በሰጡት": 2849,
      "መና": 2850,
      "በከተማ": 2851,
      "ዞኑ": 2852,
      "አድርጎ": 2853,
      "እጥረት": 2854,
      "ከብ": 2855,
      "ማቸውን": 2856,
      "ንትሮባን": 2857,
      "ታጣቂ": 2858,
      "ዲን": 2859,
      "ገኙበት": 2860,
      "አዲሱ": 2861,
      "ቃወ": 2862,
      "ራዊቱ": 2863,
      "ኢንስቲ": 2864,
      "ሳይሆን": 2865,
      "የእንኳን": 2866,
      "ተዋ": 2867,
      "የተደረገ": 2868,
      "የደ": 2869,
      "ጭነት": 2870,
      "ጋቸው": 2871,
      "ጠንካራ": 2872,
      "ቆይ": 2873,
      "ያላቸውን": 2874,
      "አገራዊ": 2875,
      "ኤርት": 2876,
      "ኦሮሞ": 2877,
      "አስኪያ": 2878,
      "አፈጻጸም": 2879,
      "ለመገንባት": 2880,
      "የትራንስፖርት": 2881,
      "ከረ": 2882,
      "ጋዊ": 2883,
      "ነርጂ": 2884,
      "ትዕ": 2885,
      "ኳታር": 2886,
      "ዲጂታል": 2887,
      "ለተፈና": 2888,
      "የሰው": 2889,
      "ጻናት": 2890,
      "ነባ": 2891,
      "ነኛ": 2892,
      "ካት": 2893,
      "ፃናት": 2894,
      "ወዳ": 2895,
      "ጀምሯል": 2896,
      "ልዕ": 2897,
      "መሀ": 2898,
      "የኢንቨስትመንት": 2899,
      "ክትትል": 2900,
      "ድሩ": 2901,
      "የሚል": 2902,
      "በትኩረት": 2903,
      "ጣቸው": 2904,
      "በመስ": 2905,
      "ረግ": 2906,
      "ቃዎች": 2907,
      "የሐ": 2908,
      "ሸዋ": 2909,
      "ካር": 2910,
      "ምሁ": 2911,
      "አለም": 2912,
      "የሁ": 2913,
      "ገዳ": 2914,
      "የሕግ": 2915,
      "ሰተኛ": 2916,
      "መርኃ": 2917,
      "አቀረቡ": 2918,
      "እንዳለ": 2919,
      "ስተዋል": 2920,
      "ምርቶች": 2921,
      "ላንድ": 2922,
      "ዳት": 2923,
      "ሌሎችም": 2924,
      "ፍትሕ": 2925,
      "ህዳሴ": 2926,
      "ተት": 2927,
      "ጣጫ": 2928,
      "በአሁኑ": 2929,
      "ክህ": 2930,
      "የሚገመት": 2931,
      "ነዳጅ": 2932,
      "ባለስልጣን": 2933,
      "ብርሃኑ": 2934,
      "ጥን": 2935,
      "ዘንድሮ": 2936,
      "ሊዝ": 2937,
      "ያም": 2938,
      "at": 2939,
      "ማቸው": 2940,
      "ክሽን": 2941,
      "ኮሙዩኒኬሽን": 2942,
      "መደረጉን": 2943,
      "ግብሩ": 2944,
      "ወረርሽ": 2945,
      "ደስ": 2946,
      "ሕይወት": 2947,
      "ሰስ": 2948,
      "ሴት": 2949,
      "አቅጣጫ": 2950,
      "ለማሳደግ": 2951,
      "ቁም": 2952,
      "መኖሪያ": 2953,
      "ሂደ": 2954,
      "አስተዋጽ": 2955,
      "ስጋት": 2956,
      "2011": 2957,
      "ውጤታማ": 2958,
      "መስቀል": 2959,
      "ሽመልስ": 2960,
      "ቪል": 2961,
      "የማስ": 2962,
      "ጉምሩክ": 2963,
      "በቂ": 2964,
      "ብሔረ": 2965,
      "የህወሓት": 2966,
      "alta": 2967,
      "ባህል": 2968,
      "ደረሰው": 2969,
      "ቀርቡ": 2970,
      "ኤር": 2971,
      "ለመከላከያ": 2972,
      "ኛውም": 2973,
      "መወሰኑ": 2974,
      "ማብራ": 2975,
      "ምፒ": 2976,
      "ንትሮባንድ": 2977,
      "100": 2978,
      "መፍት": 2979,
      "ፈጽ": 2980,
      "የኮቪድ": 2981,
      "ውው": 2982,
      "ይነ": 2983,
      "ቾች": 2984,
      "አጋር": 2985,
      "ግድያ": 2986,
      "ሉዓ": 2987,
      "ሾች": 2988,
      "ፈረ": 2989,
      "የሚኖሩ": 2990,
      "መንበር": 2991,
      "ዓቃቤ": 2992,
      "ፕሮፌ": 2993,
      "for": 2994,
      "ለሁ": 2995,
      "እነ": 2996,
      "ዞኖች": 2997,
      "በመዲናዋ": 2998,
      "ራፊ": 2999,
      "የአስቸኳይ": 3000,
      "ሀላፊ": 3001,
      "ፈጠራ": 3002,
      "ምስጋና": 3003,
      "ኤርትራ": 3004,
      "በመላ": 3005,
      "ታሪክ": 3006,
      "ናፊ": 3007,
      "የዋጋ": 3008,
      "ክትባት": 3009,
      "ንቅናቄ": 3010,
      "የሚሆኑ": 3011,
      "የአገር": 3012,
      "መንግሥታት": 3013,
      "ዝቅተኛ": 3014,
      "ገረ": 3015,
      "የተከሰ": 3016,
      "ዱስ": 3017,
      "ጠባ": 3018,
      "ዛዝ": 3019,
      "የሚውል": 3020,
      "ወረዳዎች": 3021,
      "መሳሳይ": 3022,
      "ማህበር": 3023,
      "ሉዓላዊ": 3024,
      "ኃላፊነት": 3025,
      "ሕዝቦች": 3026,
      "የሴቶች": 3027,
      "ዳግም": 3028,
      "ከላዊ": 3029,
      "ለመፍጠር": 3030,
      "ማማ": 3031,
      "ሽግ": 3032,
      "አቤቱ": 3033,
      "የህግ": 3034,
      "ዘርፎች": 3035,
      "ማድረጉን": 3036,
      "አጠቃላይ": 3037,
      "ወንድ": 3038,
      "ስትራቴ": 3039,
      "በሐ": 3040,
      "ፀረ": 3041,
      "ጠቅላላ": 3042,
      "ብሔር": 3043,
      "ሂዷል": 3044,
      "ወሎ": 3045,
      "ድሪ": 3046,
      "ጎል": 3047,
      "ዕኖ": 3048,
      "ግለሰብ": 3049,
      "ንቀሳቀሱ": 3050,
      "መብቶች": 3051,
      "ሠሩ": 3052,
      "አደረ": 3053,
      "ወራ": 3054,
      "ዕድ": 3055,
      "ያቀረቡ": 3056,
      "ጠቁመዋል": 3057,
      "ቀበሌ": 3058,
      "ኃይሉ": 3059,
      "2010": 3060,
      "ኢነርጂ": 3061,
      "የአረንጓዴ": 3062,
      "ጀመረው": 3063,
      "ሳተፍ": 3064,
      "ሄክታር": 3065,
      "ዳል": 3066,
      "ከተለያዩ": 3067,
      "ማብራሪያ": 3068,
      "የቅ": 3069,
      "የዘ": 3070,
      "ድምፅ": 3071,
      "80": 3072,
      "TV": 3073,
      "ስቲክስ": 3074,
      "ዳበሪያ": 3075,
      "ሽልማት": 3076,
      "የአውሮፓ": 3077,
      "ሃን": 3078,
      "ቆይታ": 3079,
      "se": 3080,
      "የማዕድን": 3081,
      "ve": 3082,
      "ሌት": 3083,
      "ከእስር": 3084,
      "መገናኛ": 3085,
      "ተራ": 3086,
      "ከም": 3087,
      "ታን": 3088,
      "ክተ": 3089,
      "ዓረ": 3090,
      "ደተኞች": 3091,
      "እርሻ": 3092,
      "ሁለትዮሽ": 3093,
      "ይህንን": 3094,
      "ጉዞ": 3095,
      "ሳቸውን": 3096,
      "ብሊ": 3097,
      "ባለሀ": 3098,
      "ሙያ": 3099,
      "የግ": 3100,
      "አብዲሳ": 3101,
      "መሐ": 3102,
      "ፈራ": 3103,
      "ሀገራቸው": 3104,
      "ቆመ": 3105,
      "ተሻ": 3106,
      "ተደራሽ": 3107,
      "በአሸባሪው": 3108,
      "ብዙኃን": 3109,
      "ኢንስቲት": 3110,
      "ልፍ": 3111,
      "በላ": 3112,
      "ost": 3113,
      "ስላ": 3114,
      "ፓን": 3115,
      "አስኪያጅ": 3116,
      "ሴራ": 3117,
      "መረብ": 3118,
      "ማኅበረሰብ": 3119,
      "ደኛ": 3120,
      "ግባብ": 3121,
      "ሥልጣ": 3122,
      "እንደምት": 3123,
      "መገኘ": 3124,
      "ባበሩት": 3125,
      "መልካም": 3126,
      "አቤቱታ": 3127,
      "ዝገባ": 3128,
      "የራ": 3129,
      "ወረራ": 3130,
      "በውጭ": 3131,
      "ደረሰባቸው": 3132,
      "ሣሥ": 3133,
      "ሰቢያ": 3134,
      "ድሮ": 3135,
      "ተጠናክሮ": 3136,
      "2012": 3137,
      "እንዲያደርግ": 3138,
      "ታፊ": 3139,
      "እድል": 3140,
      "የተወሰ": 3141,
      "ስተር": 3142,
      "ግብፅ": 3143,
      "ተጠርጣሪዎች": 3144,
      "በሶማሌ": 3145,
      "ኢንጂነር": 3146,
      "አውሮፕላን": 3147,
      "መከላከል": 3148,
      "ኔት": 3149,
      "ፕሮፌሰር": 3150,
      "ተቃ": 3151,
      "ተኮ": 3152,
      "ጥራት": 3153,
      "op": 3154,
      "ለሪፖርተር": 3155,
      "ጀንዳ": 3156,
      "ስትራቴጂ": 3157,
      "ቻችን": 3158,
      "እንዳለበት": 3159,
      "በሕገ": 3160,
      "ስትራክሽን": 3161,
      "ጠናቀቀ": 3162,
      "ረሚያ": 3163,
      "ሰፊ": 3164,
      "ባስ": 3165,
      "የገ": 3166,
      "ረሙ": 3167,
      "የኦ": 3168,
      "የሚታ": 3169,
      "ተከታ": 3170,
      "ልዑካን": 3171,
      "ህን": 3172,
      "ደሮች": 3173,
      "ባለቤት": 3174,
      "አቅርበዋል": 3175,
      "ሙከራ": 3176,
      "በሁሉም": 3177,
      "ነጻ": 3178,
      "መቀመጫ": 3179,
      "ብን": 3180,
      "ግምት": 3181,
      "በማህበራዊ": 3182,
      "ባህ": 3183,
      "ናጀ": 3184,
      "ክርስቲያን": 3185,
      "አሠራ": 3186,
      "የአንድ": 3187,
      "ጠኝ": 3188,
      "ጣኝ": 3189,
      "ችግሮችን": 3190,
      "ችሎት": 3191,
      "ድዋ": 3192,
      "ጭት": 3193,
      "የሚያስችሉ": 3194,
      "ናው": 3195,
      "ህዳር": 3196,
      "አራ": 3197,
      "አሸባሪ": 3198,
      "መልዕክ": 3199,
      "አማካ": 3200,
      "ቁሳቁስ": 3201,
      "om": 3202,
      "ዳረ": 3203,
      "ሪቱን": 3204,
      "ስፖርት": 3205,
      "ትግራይ": 3206,
      "የብልጽግና": 3207,
      "ተገቢ": 3208,
      "ምረ": 3209,
      "ሳለ": 3210,
      "ተከል": 3211,
      "ገራቸው": 3212,
      "ሆቴል": 3213,
      "መመር": 3214,
      "ሴን": 3215,
      "የሚሰ": 3216,
      "ገጻቸው": 3217,
      "ሳችሁ": 3218,
      "የህክምና": 3219,
      "መዘገቡ": 3220,
      "ic": 3221,
      "ቷን": 3222,
      "ቅርንጫፍ": 3223,
      "ሰጠው": 3224,
      "ዋነኛ": 3225,
      "ከዓለም": 3226,
      "ስራዎችን": 3227,
      "ቴክኒክ": 3228,
      "አስተዋጽኦ": 3229,
      "የፍ": 3230,
      "የኮሮና": 3231,
      "ዘዋ": 3232,
      "መቻሉን": 3233,
      "ባለመ": 3234,
      "ከ4": 3235,
      "ምክንያቶች": 3236,
      "ራፊክ": 3237,
      "በጋምቤላ": 3238,
      "በከፍተኛ": 3239,
      "ሱት": 3240,
      "ወሰን": 3241,
      "ተሽከርካሪዎች": 3242,
      "ምሁራን": 3243,
      "ቤቶችን": 3244,
      "ኖችን": 3245,
      "ፍሬ": 3246,
      "ወረርሽኝ": 3247,
      "ረታዊ": 3248,
      "ከአዲስ": 3249,
      "ገባት": 3250,
      "ትውልድ": 3251,
      "ሸነ": 3252,
      "ዚያ": 3253,
      "በተገኙበት": 3254,
      "አንቀ": 3255,
      "ፈልግ": 3256,
      "ቱርክ": 3257,
      "በቀለ": 3258,
      "ዕዝ": 3259,
      "ሜት": 3260,
      "ጨት": 3261,
      "በመጠቀም": 3262,
      "አቀባ": 3263,
      "ማክ": 3264,
      "ሣሪያ": 3265,
      "የኢትዮ": 3266,
      "ኖረው": 3267,
      "ጥቅ": 3268,
      "ጋዜጣ": 3269,
      "ታኅሣሥ": 3270,
      "ንም": 3271,
      "አጀንዳ": 3272,
      "ፏል": 3273,
      "ለተፈናቀሉ": 3274,
      "ነህ": 3275,
      "ትዕዛዝ": 3276,
      "ረደ": 3277,
      "በኢ": 3278,
      "ፎርሜ": 3279,
      "ወሳል": 3280,
      "ሞት": 3281,
      "ጨመረ": 3282,
      "ፍረስ": 3283,
      "ወሳኝ": 3284,
      "አደረሳችሁ": 3285,
      "ድብ": 3286,
      "አትሌት": 3287,
      "መሀመድ": 3288,
      "ሠላም": 3289,
      "ሃገ": 3290,
      "ይን": 3291,
      "ገነቡ": 3292,
      "አዛዥ": 3293,
      "ማመን": 3294,
      "ሬታ": 3295,
      "ትነት": 3296,
      "የመሬት": 3297,
      "pl": 3298,
      "ረጃ": 3299,
      "ገውን": 3300,
      "ገነባው": 3301,
      "ምዝገባ": 3302,
      "ሪት": 3303,
      "አቀባይ": 3304,
      "መለከቱ": 3305,
      "በሚገኙ": 3306,
      "ይህን": 3307,
      "ይታወሳል": 3308,
      "ወሃት": 3309,
      "ዳና": 3310,
      "ጥላ": 3311,
      "በለጠ": 3312,
      "አሰጣ": 3313,
      "ደንብ": 3314,
      "የተና": 3315,
      "የተገለጸ": 3316,
      "መጀመ": 3317,
      "የተሰኘ": 3318,
      "ፎርሜሽን": 3319,
      "ጥፋት": 3320,
      "ልማትና": 3321,
      "በታች": 3322,
      "ህሳስ": 3323,
      "ማው": 3324,
      "የሀገሪቱ": 3325,
      "አማካሪ": 3326,
      "ዩክሬን": 3327,
      "ጣሪ": 3328,
      "ነዋሪ": 3329,
      "የመንገድ": 3330,
      "እስራት": 3331,
      "ጣቢያዎች": 3332,
      "ጀነራል": 3333,
      "ስልጣ": 3334,
      "ማቅረብ": 3335,
      "የዕ": 3336,
      "እንዳለው": 3337,
      "ዳንድ": 3338,
      "መሸ": 3339,
      "መብ": 3340,
      "በጣ": 3341,
      "ቀም": 3342,
      "ንጅት": 3343,
      "የዲፕሎማሲ": 3344,
      "ባለሙያ": 3345,
      "ሬቻ": 3346,
      "ብርሃን": 3347,
      "ኮሪያ": 3348,
      "የቤት": 3349,
      "የተባለው": 3350,
      "ኮኖሚያ": 3351,
      "ሳህለወርቅ": 3352,
      "ኮሌ": 3353,
      "ጥነት": 3354,
      "የአር": 3355,
      "ምል": 3356,
      "ኑሮ": 3357,
      "እንደሆኑ": 3358,
      "he": 3359,
      "መሣሪያ": 3360,
      "ቋረ": 3361,
      "እንዳል": 3362,
      "መዝገብ": 3363,
      "ተሽከርካሪ": 3364,
      "ልት": 3365,
      "ዴሞክራሲ": 3366,
      "የቀረበ": 3367,
      "ድርጅቱ": 3368,
      "ዕርዳታ": 3369,
      "ያለመ": 3370,
      "በተደረገ": 3371,
      "በመንግሥት": 3372,
      "የምክክር": 3373,
      "ፈጥ": 3374,
      "ቦታዎች": 3375,
      "ሊቀመንበር": 3376,
      "የ1": 3377,
      "በሳ": 3378,
      "ግብይት": 3379,
      "ባለሃ": 3380,
      "ነስተኛ": 3381,
      "ፈጸመ": 3382,
      "ለአ": 3383,
      "ሚየር": 3384,
      "የሚያደር": 3385,
      "ፓርቲው": 3386,
      "ተጠርጣሪ": 3387,
      "በሀገሪቱ": 3388,
      "ጠረጠሩ": 3389,
      "በትብብር": 3390,
      "ህብረተሰቡ": 3391,
      "ርፍ": 3392,
      "ጋጠ": 3393,
      "የነበሩት": 3394,
      "ዝናብ": 3395,
      "ትናንት": 3396,
      "ጂቡቲ": 3397,
      "ጋንዳ": 3398,
      "እለት": 3399,
      "በረራ": 3400,
      "የሚመ": 3401,
      "ሰቦች": 3402,
      "በመተባበር": 3403,
      "ካተ": 3404,
      "አምራች": 3405,
      "የሚኒስት": 3406,
      "ፈለ": 3407,
      "ፍቃ": 3408,
      "መጀመሩን": 3409,
      "ቀጠና": 3410,
      "ሙስጠ": 3411,
      "ስሳት": 3412,
      "እንዳሉት": 3413,
      "ህልውና": 3414,
      "መሐመድ": 3415,
      "ሞን": 3416,
      "ተልዕ": 3417,
      "የ30": 3418,
      "ጠናቀቁን": 3419,
      "ረገድ": 3420,
      "በደረሰ": 3421,
      "70": 3422,
      "መምህ": 3423,
      "ተፅ": 3424,
      "ዕርምጃ": 3425,
      "ክብር": 3426,
      "ፃፀ": 3427,
      "ሳን": 3428,
      "ክብ": 3429,
      "በተካሄደው": 3430,
      "ባለሥልጣ": 3431,
      "ፕሪሚየር": 3432,
      "ስና": 3433,
      "የወደ": 3434,
      "ተናል": 3435,
      "ለሕዝብ": 3436,
      "ፎረም": 3437,
      "አላ": 3438,
      "አሰራ": 3439,
      "ዳቤ": 3440,
      "በአግባ": 3441,
      "ኮኖሚያዊ": 3442,
      "ኖቬ": 3443,
      "ሽግግር": 3444,
      "ኞችን": 3445,
      "እቅድ": 3446,
      "ክሩ": 3447,
      "የሌ": 3448,
      "ay": 3449,
      "መረጋ": 3450,
      "ጨረታ": 3451,
      "ኢንተርፕ": 3452,
      "ዚሁ": 3453,
      "ሚኒስትሯ": 3454,
      "ባንኮች": 3455,
      "በሌላ": 3456,
      "ተመራ": 3457,
      "ወቅቱ": 3458,
      "የሃይማኖት": 3459,
      "ገመ": 3460,
      "እየጨመረ": 3461,
      "አሸናፊ": 3462,
      "ቋን": 3463,
      "ይር": 3464,
      "2008": 3465,
      "ሀገራችን": 3466,
      "በሌሎች": 3467,
      "ከአ": 3468,
      "ሕር": 3469,
      "ቻቸውን": 3470,
      "ከሩ": 3471,
      "የሱዳን": 3472,
      "በመር": 3473,
      "ፓርኮች": 3474,
      "ድርጊት": 3475,
      "በአግባቡ": 3476,
      "ማጣ": 3477,
      "አቀባበል": 3478,
      "ዴሞክራሲያዊ": 3479,
      "ጀርመን": 3480,
      "ተጠቆመ": 3481,
      "ደራደረ": 3482,
      "ኖቬሽን": 3483,
      "pro": 3484,
      "ሚንቶ": 3485,
      "የብ": 3486,
      "ፐብሊ": 3487,
      "በህገ": 3488,
      "35": 3489,
      "የተባሉ": 3490,
      "ሰድ": 3491,
      "ካሂ": 3492,
      "በሚገኘው": 3493,
      "ግዙ": 3494,
      "ሀብ": 3495,
      "አጠናክሮ": 3496,
      "ተረ": 3497,
      "አንስተዋል": 3498,
      "የህዳሴ": 3499,
      "ታህሳስ": 3500,
      "ትራ": 3501,
      "በትና": 3502,
      "ፈጸሙ": 3503,
      "ዝግጅ": 3504,
      "ሰቡን": 3505,
      "ኅበራዊ": 3506,
      "ተጠየቀ": 3507,
      "ሃገር": 3508,
      "መስኖ": 3509,
      "መቆየ": 3510,
      "ባለሀብቶች": 3511,
      "ማገ": 3512,
      "ይይት": 3513,
      "የአገሪቱ": 3514,
      "ሰባሰብ": 3515,
      "ስኬት": 3516,
      "ማዳበሪያ": 3517,
      "በተከሰ": 3518,
      "ቸዉ": 3519,
      "ኳር": 3520,
      "ጅጋ": 3521,
      "በአገር": 3522,
      "በአካባቢ": 3523,
      "የሚያደርጉ": 3524,
      "ኒት": 3525,
      "የሩሲያ": 3526,
      "ስምንት": 3527,
      "አስፈላጊውን": 3528,
      "ተደርጎ": 3529,
      "ዓብይ": 3530,
      "የለም": 3531,
      "የወንጀል": 3532,
      "ወሰደ": 3533,
      "እያደራደረ": 3534,
      "ማዕረግ": 3535,
      "ላለፍ": 3536,
      "ዋንጫ": 3537,
      "አቡ": 3538,
      "እድ": 3539,
      "ጅቡቲ": 3540,
      "ጋቸውን": 3541,
      "ጠየቁ": 3542,
      "የሰሜን": 3543,
      "እያደራደረች": 3544,
      "ረታ": 3545,
      "ደቅ": 3546,
      "ter": 3547,
      "የተፈረደ": 3548,
      "መመሪያ": 3549,
      "ተሸ": 3550,
      "ነታችን": 3551,
      "የአፋር": 3552,
      "ለመመለስ": 3553,
      "አሳስ": 3554,
      "ጠኝነት": 3555,
      "ኢኮኖሚያዊ": 3556,
      "የባህል": 3557,
      "ስለሚ": 3558,
      "ጌታ": 3559,
      "2016": 3560,
      "አረቢያ": 3561,
      "የሚኒስትሮች": 3562,
      "አግባብ": 3563,
      "ፕሬዚዳን": 3564,
      "ምቹ": 3565,
      "ቢኔ": 3566,
      "የመል": 3567,
      "ke": 3568,
      "በሱዳን": 3569,
      "እድገት": 3570,
      "ባብ": 3571,
      "ጓዝ": 3572,
      "መስሪያ": 3573,
      "ረምት": 3574,
      "አፈፃፀ": 3575,
      "ጠቁመው": 3576,
      "ተካሂዷል": 3577,
      "ቦርዱ": 3578,
      "ጨር": 3579,
      "ቀስ": 3580,
      "ዘጠኝ": 3581,
      "የምን": 3582,
      "ያቂ": 3583,
      "ግጅጋ": 3584,
      "ደርሱ": 3585,
      "ተወካይ": 3586,
      "2009": 3587,
      "የኦሮሞ": 3588,
      "ግሩ": 3589,
      "ሊያን": 3590,
      "የበጎ": 3591,
      "ኢትዮጵያና": 3592,
      "የምስራቅ": 3593,
      "ላይታ": 3594,
      "ጎብኝ": 3595,
      "ያላትን": 3596,
      "ጣሊያናዊ": 3597,
      "ጌታቸው": 3598,
      "ግዝ": 3599,
      "በሽታ": 3600,
      "ኤን": 3601,
      "እንጂ": 3602,
      "ኖሪያ": 3603,
      "የመረጃ": 3604,
      "ጪው": 3605,
      "ጠቅሰው": 3606,
      "ምዕራፍ": 3607,
      "የሲዳማ": 3608,
      "ከ2": 3609,
      "ዳው": 3610,
      "ጸጥታ": 3611,
      "እየተከበረ": 3612,
      "ማረፊያ": 3613,
      "ቻለ": 3614,
      "ግድቡ": 3615,
      "ቤተሰቦች": 3616,
      "ዮና": 3617,
      "ገኛ": 3618,
      "የንግድና": 3619,
      "የተፈረደበት": 3620,
      "በጠቅላይ": 3621,
      "ተከላ": 3622,
      "ጣልቃ": 3623,
      "ዘይት": 3624,
      "ማል": 3625,
      "ውኃ": 3626,
      "በመገኘ": 3627,
      "የተፈጥሮ": 3628,
      "ማዕከሉ": 3629,
      "ver": 3630,
      "ተዳ": 3631,
      "የቱሪዝም": 3632,
      "ደስታ": 3633,
      "የተሻለ": 3634,
      "አደሮች": 3635,
      "መመርያ": 3636,
      "ሚዲያ": 3637,
      "ሰሜን": 3638,
      "ተሰጠ": 3639,
      "ተሳታፊ": 3640,
      "ተሰጥ": 3641,
      "አብሮ": 3642,
      "የኮንትሮባንድ": 3643,
      "ቅረፍ": 3644,
      "ተልዕኮ": 3645,
      "ተለ": 3646,
      "ውጣ": 3647,
      "ያህል": 3648,
      "ምጣት": 3649,
      "ኪና": 3650,
      "ተፈናቃ": 3651,
      "መሥሪያ": 3652,
      "እያስ": 3653,
      "ጠበቀ": 3654,
      "መነሻ": 3655,
      "ክብደቱ": 3656,
      "ባለፈ": 3657,
      "ሚኒስትሮች": 3658,
      "ስቴር": 3659,
      "ረሱ": 3660,
      "ይዘው": 3661,
      "የተቀናጀ": 3662,
      "ረዳት": 3663,
      "ካሚ": 3664,
      "ችሏል": 3665,
      "በአጠቃላይ": 3666,
      "ምግ": 3667,
      "የድሬዳዋ": 3668,
      "ያደረጉ": 3669,
      "የተኩስ": 3670,
      "አስተላለፉ": 3671,
      "ments": 3672,
      "ገዛ": 3673,
      "ጠነ": 3674,
      "ፊል": 3675,
      "በምዕራብ": 3676,
      "ወዲ": 3677,
      "የግንባታ": 3678,
      "ግርማ": 3679,
      "ተፅዕኖ": 3680,
      "እኩ": 3681,
      "አቀረበ": 3682,
      "fo": 3683,
      "ምግባር": 3684,
      "ባህር": 3685,
      "አቁም": 3686,
      "ture": 3687,
      "ተደርጓል": 3688,
      "ሀሳብ": 3689,
      "ውቅና": 3690,
      "ዓይነት": 3691,
      "አስተላል": 3692,
      "ኢንስቲትዩት": 3693,
      "ነታቸው": 3694,
      "ፅህፈት": 3695,
      "ማጠናከር": 3696,
      "ቀጠ": 3697,
      "ውሞ": 3698,
      "የሙስና": 3699,
      "ኮንስትራክሽን": 3700,
      "ዘጋጀው": 3701,
      "ለፍ": 3702,
      "አቅርቦ": 3703,
      "ቶቹ": 3704,
      "ኳስ": 3705,
      "መሰል": 3706,
      "ሙስጠፌ": 3707,
      "ሻል": 3708,
      "በኞች": 3709,
      "ጥረው": 3710,
      "ገባው": 3711,
      "ደብዳቤ": 3712,
      "ከበ": 3713,
      "ታጣቂዎች": 3714,
      "ፈጥር": 3715,
      "ገሩት": 3716,
      "ባሻገር": 3717,
      "ተኝነት": 3718,
      "ነታቸውን": 3719,
      "ቶችና": 3720,
      "ግምገ": 3721,
      "የሚገኘውን": 3722,
      "ድንጋይ": 3723,
      "አለበት": 3724,
      "መሰብሰብ": 3725,
      "ሥጋት": 3726,
      "እያካሄደ": 3727,
      "ፍትህ": 3728,
      "ዘረ": 3729,
      "ጥቃ": 3730,
      "ግልጽ": 3731,
      "ess": 3732,
      "ዛሪ": 3733,
      "አንቀጽ": 3734,
      "ትግ": 3735,
      "ሥራቅ": 3736,
      "የምት": 3737,
      "ክላ": 3738,
      "በመፍ": 3739,
      "ባለስልጣ": 3740,
      "ተያይዞ": 3741,
      "ባደረገው": 3742,
      "ወቂያ": 3743,
      "ጃፓን": 3744,
      "እንኳን": 3745,
      "ተናገሩት": 3746,
      "ባሰ": 3747,
      "ጭር": 3748,
      "ፋይናንስ": 3749,
      "ረጋግ": 3750,
      "ሀይል": 3751,
      "ሁሴን": 3752,
      "አድርገው": 3753,
      "ደታ": 3754,
      "ሳካ": 3755,
      "ውጣት": 3756,
      "የዳ": 3757,
      "ደማ": 3758,
      "ግዥ": 3759,
      "ወገን": 3760,
      "ዶችን": 3761,
      "በመድረ": 3762,
      "ci": 3763,
      "ሲዮን": 3764,
      "ቲክስ": 3765,
      "ኤስ": 3766,
      "ታገ": 3767,
      "ከ5": 3768,
      "ከሌሎች": 3769,
      "በትምህርት": 3770,
      "ዩኒቨርሲቲዎች": 3771,
      "ተገኝተው": 3772,
      "እምነት": 3773,
      "ክህሎት": 3774,
      "ልውና": 3775,
      "ሃይ": 3776,
      "ኒው": 3777,
      "ያላ": 3778,
      "ስምምነቱ": 3779,
      "አደረጃ": 3780,
      "አቅራ": 3781,
      "ach": 3782,
      "Com": 3783,
      "hare": 3784,
      "ኮሚቴው": 3785,
      "እንዲሰ": 3786,
      "ሁለተኛው": 3787,
      "ባለሃብቶች": 3788,
      "ራሚ": 3789,
      "ተሾ": 3790,
      "ደካ": 3791,
      "እንደተናገሩት": 3792,
      "ዮችን": 3793,
      "ri": 3794,
      "ኔል": 3795,
      "ከአንድ": 3796,
      "አካባቢው": 3797,
      "በነበረው": 3798,
      "Share": 3799,
      "fe": 3800,
      "ላቅ": 3801,
      "ካለ": 3802,
      "ሰባት": 3803,
      "የምክር": 3804,
      "ለማቋቋም": 3805,
      "መዘገበ": 3806,
      "ስፔ": 3807,
      "የደረሰ": 3808,
      "ሬሽ": 3809,
      "ክን": 3810,
      "ፀደቀ": 3811,
      "በመስጠት": 3812,
      "በቅንጅት": 3813,
      "ያልተ": 3814,
      "ጥያቄዎች": 3815,
      "ቋንቋ": 3816,
      "መያዙ": 3817,
      "ለዚህ": 3818,
      "አገኘ": 3819,
      "አስተዳዳሪ": 3820,
      "እውቅና": 3821,
      "ስፍራ": 3822,
      "ማድረጓ": 3823,
      "ተስማሙየአፍሪካ": 3824,
      "ሰጪ": 3825,
      "ፋን": 3826,
      "ሚኒስትርና": 3827,
      "ተሰማ": 3828,
      "እንድት": 3829,
      "ባር": 3830,
      "ጳጉ": 3831,
      "አስከ": 3832,
      "6ኛው": 3833,
      "ቀድሞ": 3834,
      "በምክትል": 3835,
      "ይሁን": 3836,
      "ደረሱ": 3837,
      "ለማቅረብ": 3838,
      "በውይይቱ": 3839,
      "ሌዳ": 3840,
      "ስለመ": 3841,
      "ጠላት": 3842,
      "ዓረቢያ": 3843,
      "ጆቹ": 3844,
      "በዓሉ": 3845,
      "ለተጎዱ": 3846,
      "ወለጋ": 3847,
      "መሃ": 3848,
      "አብራር": 3849,
      "ታሪካ": 3850,
      "ጉል": 3851,
      "።–": 3852,
      "በመሰ": 3853,
      "ይልቃል": 3854,
      "ማግ": 3855,
      "ዳቸው": 3856,
      "ጀምር": 3857,
      "የሚችል": 3858,
      "ተጠር": 3859,
      "ቤን": 3860,
      "ዋት": 3861,
      "በአገሪቱ": 3862,
      "ቃቄ": 3863,
      "የኅ": 3864,
      "ተጠያቂ": 3865,
      "አዋጁ": 3866,
      "የተገኙት": 3867,
      "44": 3868,
      "ጊያ": 3869,
      "ማርያም": 3870,
      "ውድመት": 3871,
      "ያስፈልጋል": 3872,
      "ሜዳ": 3873,
      "ከሳዑዲ": 3874,
      "ማዊት": 3875,
      "ተማሪዎችን": 3876,
      "አሠራር": 3877,
      "አጥ": 3878,
      "አመላክቷል": 3879,
      "የበላይ": 3880,
      "ስተዋ": 3881,
      "መለከ": 3882,
      "ቁርጠኝነት": 3883,
      "ነዋል": 3884,
      "የበኩ": 3885,
      "ይጠበ": 3886,
      "መስፍን": 3887,
      "ተወስ": 3888,
      "የጸረ": 3889,
      "የሆኑት": 3890,
      "የውኃ": 3891,
      "ሥራት": 3892,
      "የጠቀ": 3893,
      "የምታ": 3894,
      "ማኅበራት": 3895,
      "ይጠበቃል": 3896,
      "ስቶ": 3897,
      "ሽያ": 3898,
      "በግ": 3899,
      "ንዛ": 3900,
      "የፖሊስ": 3901,
      "ለዓለም": 3902,
      "አዴ": 3903,
      "የድጋፍ": 3904,
      "ያቸውን": 3905,
      "ፐብሊክ": 3906,
      "የጣ": 3907,
      "ሚካ": 3908,
      "ሳሽ": 3909,
      "ተቋማትን": 3910,
      "ባወጣው": 3911,
      "ኮሎ": 3912,
      "ጅማ": 3913,
      "ህክምና": 3914,
      "መስጠ": 3915,
      "ይህም": 3916,
      "በወ": 3917,
      "ፕላ": 3918,
      "የመጣ": 3919,
      "ዘመቻው": 3920,
      "ፋሪ": 3921,
      "ምንዛሪ": 3922,
      "ልና": 3923,
      "ap": 3924,
      "ነቶች": 3925,
      "እንደሚቀጥል": 3926,
      "በሚቻል": 3927,
      "አይደ": 3928,
      "ገለፁት": 3929,
      "ቁሟል": 3930,
      "ዋዕ": 3931,
      "ስያ": 3932,
      "ጭማሪ": 3933,
      "ng": 3934,
      "ሐሳብ": 3935,
      "በድሬዳዋ": 3936,
      "ቸር": 3937,
      "ውም": 3938,
      "የፌዴሬሽን": 3939,
      "ያተኮ": 3940,
      "በማሳ": 3941,
      "ቀጣይ": 3942,
      "ፖለቲካዊ": 3943,
      "ለመደገፍ": 3944,
      "ካፒ": 3945,
      "የምርመራ": 3946,
      "ሥልጠና": 3947,
      "በራቸው": 3948,
      "ማረጋገ": 3949,
      "ተመለሱ": 3950,
      "አንፃ": 3951,
      "አማራጭ": 3952,
      "በረከተ": 3953,
      "እየተከናወነ": 3954,
      "አውሮፓ": 3955,
      "መሰረቱ": 3956,
      "በድጋ": 3957,
      "ለማሻሻል": 3958,
      "የምዕራ": 3959,
      "ምጣ": 3960,
      "ሽት": 3961,
      "ቅኝ": 3962,
      "መረጃና": 3963,
      "ተጠሪ": 3964,
      "ወስደው": 3965,
      "ይዞታ": 3966,
      "መንገዱ": 3967,
      "ሚንስቴር": 3968,
      "ሕጋዊ": 3969,
      "ፋይ": 3970,
      "ፈጠረው": 3971,
      "ግባት": 3972,
      "ስርጭት": 3973,
      "ግሩፕ": 3974,
      "ነጋዴ": 3975,
      "ልምድ": 3976,
      "ሲዳማ": 3977,
      "ኪንግ": 3978,
      "ዕድገት": 3979,
      "ያልተገ": 3980,
      "የእሳት": 3981,
      "አሰጣጥ": 3982,
      "በቤኒሻንጉል": 3983,
      "የኢን": 3984,
      "የገበያ": 3985,
      "ረኛ": 3986,
      "age": 3987,
      "እንዳለባቸው": 3988,
      "በመድረኩ": 3989,
      "ቅሬታ": 3990,
      "ብቃት": 3991,
      "አስመረቀ": 3992,
      "አባቶች": 3993,
      "ዘጋጀት": 3994,
      "ከሚገኙ": 3995,
      "ሽከርካሪ": 3996,
      "ኮሌጅ": 3997,
      "ሽናል": 3998,
      "የተጠረጠሩ": 3999,
      "ሬድ": 4000,
      "ፈፀም": 4001,
      "መቀመጫውን": 4002,
      "ጥል": 4003,
      "33": 4004,
      "ሪንግ": 4005,
      "የህብረተሰብ": 4006,
      "ወጥቶ": 4007,
      "ጉባኤው": 4008,
      "አግ": 4009,
      "በዓልን": 4010,
      "ያት": 4011,
      "ፈልጉ": 4012,
      "በድም": 4013,
      "ዱት": 4014,
      "የታላቁ": 4015,
      "ወደብ": 4016,
      "ተፈራረሙ": 4017,
      "ምፕ": 4018,
      "ሃብት": 4019,
      "በዚሁ": 4020,
      "ንጋ": 4021,
      "መረቁ": 4022,
      "ስተላለፉት": 4023,
      "የተናገሩት": 4024,
      "አፈፃፀም": 4025,
      "መግለ": 4026,
      "ሞላ": 4027,
      "ጅም": 4028,
      "ሥራዎችን": 4029,
      "ህጻናት": 4030,
      "እንዲቆም": 4031,
      "90": 4032,
      "ከ7": 4033,
      "with": 4034,
      "ተመ": 4035,
      "ታስ": 4036,
      "ጥሩ": 4037,
      "ችላል": 4038,
      "ቆስ": 4039,
      "ናቀሉ": 4040,
      "በቀል": 4041,
      "ኦርቶ": 4042,
      "ከበደ": 4043,
      "ያደር": 4044,
      "በምስራቅ": 4045,
      "ቢቢሲ": 4046,
      "ግባቢያ": 4047,
      "ግምገማ": 4048,
      "ህፃናት": 4049,
      "ሙዚ": 4050,
      "በዋና": 4051,
      "አሊ": 4052,
      "መድረሱን": 4053,
      "ከለኛ": 4054,
      "መሆኗን": 4055,
      "ባካሄደው": 4056,
      "እየተሠራ": 4057,
      "በቆ": 4058,
      "ቤታቸው": 4059,
      "አነስተኛ": 4060,
      "የላ": 4061,
      "ሰጥተዋል": 4062,
      "ማስተባ": 4063,
      "ኦርቶዶ": 4064,
      "ገም": 4065,
      "ተውን": 4066,
      "ዳኞች": 4067,
      "ሯን": 4068,
      "በፌዴራል": 4069,
      "ጦች": 4070,
      "የውይይት": 4071,
      "ዘላቂነት": 4072,
      "አቋም": 4073,
      "ሬሽኑ": 4074,
      "መጽ": 4075,
      "ኤች": 4076,
      "ቻሉ": 4077,
      "ጄሪያ": 4078,
      "ተጠቁሟል": 4079,
      "ተገኘ": 4080,
      "ica": 4081,
      "ሀሰን": 4082,
      "ላቱ": 4083,
      "መደ": 4084,
      "ጡን": 4085,
      "የመግባቢያ": 4086,
      "ታሪካዊ": 4087,
      "ይሆ": 4088,
      "እነዚህ": 4089,
      "መፈ": 4090,
      "የመሠ": 4091,
      "አሳሰበ": 4092,
      "ይሆናል": 4093,
      "ቀይ": 4094,
      "ጋሚ": 4095,
      "ምርታማ": 4096,
      "ሃብ": 4097,
      "ሊን": 4098,
      "ቦል": 4099,
      "ተመረቀ": 4100,
      "ገጠ": 4101,
      "በባህር": 4102,
      "አንዳንድ": 4103,
      "አሰፋ": 4104,
      "ህይወ": 4105,
      "የል": 4106,
      "የኃይል": 4107,
      "ጋድ": 4108,
      "ማድረጋቸውን": 4109,
      "ሞችን": 4110,
      "በዋ": 4111,
      "የተቋቋ": 4112,
      "እንደሚሰራ": 4113,
      "መስተዳድሩ": 4114,
      "ማኅበራዊ": 4115,
      "ሽያጭ": 4116,
      "ce": 4117,
      "lo": 4118,
      "ካይ": 4119,
      "ጭምር": 4120,
      "እንደሚችል": 4121,
      "ተኛው": 4122,
      "ቢሮው": 4123,
      "ትውልደ": 4124,
      "ፈረንሳይ": 4125,
      "ቃወም": 4126,
      "በጎንደር": 4127,
      "ኖራቸው": 4128,
      "ሳይበር": 4129,
      "ኦርቶዶክስ": 4130,
      "እመ": 4131,
      "የተገኘ": 4132,
      "ይፋዊ": 4133,
      "የቆየ": 4134,
      "si": 4135,
      "ተፋ": 4136,
      "ተኩስ": 4137,
      "ቲክ": 4138,
      "አደም": 4139,
      "ተጠርጥረው": 4140,
      "መዘጋጀ": 4141,
      "አዱ": 4142,
      "የበጀት": 4143,
      "የሁለትዮሽ": 4144,
      "በተደረገው": 4145,
      "በተመሳሳይ": 4146,
      "600": 4147,
      "አሸነ": 4148,
      "የቀድሞው": 4149,
      "ተወላ": 4150,
      "ፕሮጀክቶችን": 4151,
      "በዘርፉ": 4152,
      "ትከል": 4153,
      "ዩኒቨርሲቲው": 4154,
      "ሳይንስና": 4155,
      "መለከታቸው": 4156,
      "37": 4157,
      "ማች": 4158,
      "ቀቂያ": 4159,
      "ውሉ": 4160,
      "የኑሮ": 4161,
      "ation": 4162,
      "ለአፍሪካ": 4163,
      "ቃቂ": 4164,
      "ለመቆጣጠር": 4165,
      "ገቢዎች": 4166,
      "ሳለኝ": 4167,
      "ኮሎኔል": 4168,
      "መጠናቀቁን": 4169,
      "የምስ": 4170,
      "ዳይሬክተ": 4171,
      "ተከሳሾች": 4172,
      "የሰብአዊ": 4173,
      "እንዲወጡ": 4174,
      "ለመቅረፍ": 4175,
      "un": 4176,
      "ቆማ": 4177,
      "ተመል": 4178,
      "ይቅር": 4179,
      "ማዕቀ": 4180,
      "ብዛ": 4181,
      "የቤኒሻንጉል": 4182,
      "ደሳለኝ": 4183,
      "ጀመራ": 4184,
      "ፈቻ": 4185,
      "ደርገው": 4186,
      "ከተማውን": 4187,
      "ደጋጋሚ": 4188,
      "በአካባቢው": 4189,
      "ቀንድ": 4190,
      "ላቸዋል": 4191,
      "ሪፎር": 4192,
      "በሃ": 4193,
      "ቦቹ": 4194,
      "ከሁለት": 4195,
      "የዞኑ": 4196,
      "እየሠራ": 4197,
      "ያተኮረ": 4198,
      "ሒደት": 4199,
      "ከቡ": 4200,
      "ያዛ": 4201,
      "ግብዓት": 4202,
      "አድራ": 4203,
      "ሙባቸው": 4204,
      "Eth": 4205,
      "ላስ": 4206,
      "በበጀት": 4207,
      "በዝርዝር": 4208,
      "ከበሩ": 4209,
      "ፈቱ": 4210,
      "አብራርተዋል": 4211,
      "ታላቁ": 4212,
      "እግር": 4213,
      "የሱ": 4214,
      "የሸ": 4215,
      "የአል": 4216,
      "ያዘጋ": 4217,
      "አረጋግ": 4218,
      "እንደሆኑም": 4219,
      "ፈንድ": 4220,
      "የትራፊክ": 4221,
      "መላኩ": 4222,
      "አዱኛ": 4223,
      "ናሽናል": 4224,
      "ተኞችን": 4225,
      "የጥፋት": 4226,
      "በቅኝ": 4227,
      "ፕሮጀክቱ": 4228,
      "ike": 4229,
      "ሚሊ": 4230,
      "ሰራዊ": 4231,
      "ንብረ": 4232,
      "የተቋ": 4233,
      "መንግሥታዊ": 4234,
      "አብርሃ": 4235,
      "የከፈ": 4236,
      "ባይነት": 4237,
      "አንፃር": 4238,
      "በድጋሚ": 4239,
      "1ኛ": 4240,
      "በግብርና": 4241,
      "ብሔረሰቦች": 4242,
      "ማቀ": 4243,
      "ካሬ": 4244,
      "ዝውው": 4245,
      "የአም": 4246,
      "ሰብል": 4247,
      "የጋምቤላ": 4248,
      "የባህር": 4249,
      "የባንክ": 4250,
      "ጥገና": 4251,
      "የኮን": 4252,
      "pe": 4253,
      "በየነ": 4254,
      "info": 4255,
      "ሎጂስቲክስ": 4256,
      "ጎብኝተዋል": 4257,
      "በድርቅ": 4258,
      "ተብለው": 4259,
      "ዛች": 4260,
      "ማህበራት": 4261,
      "ለአንድ": 4262,
      "ለፋና": 4263,
      "ሳቢያ": 4264,
      "በሁለቱ": 4265,
      "ባቸዋል": 4266,
      "አዘጋጅ": 4267,
      "ature": 4268,
      "ge": 4269,
      "የፊ": 4270,
      "በአም": 4271,
      "ግንዛ": 4272,
      "ሕን": 4273,
      "የሚሆን": 4274,
      "ግለጽ": 4275,
      "ከሰት": 4276,
      "ሃላፊዎች": 4277,
      "ወራሪ": 4278,
      "ጉድ": 4279,
      "የቀጠ": 4280,
      "ላለፈ": 4281,
      "ቀጣናዊ": 4282,
      "ሳል": 4283,
      "ጠዋል": 4284,
      "ኃይለ": 4285,
      "የ12ኛ": 4286,
      "ወዲህ": 4287,
      "አስተላልፈዋል": 4288,
      "ወገድ": 4289,
      "የሀገ": 4290,
      "እያደረጉ": 4291,
      "ዘጋጁ": 4292,
      "ሃገራት": 4293,
      "ያልተገዛች": 4294,
      "ረና": 4295,
      "ቀድ": 4296,
      "እቃዎች": 4297,
      "እንዲደረግ": 4298,
      "በሚያስ": 4299,
      "የሀረሪ": 4300,
      "ዋዕትነት": 4301,
      "walta": 4302,
      "ታክስ": 4303,
      "የበለጠ": 4304,
      "በተባበሩት": 4305,
      "ዘላለም": 4306,
      "ቫይረሱ": 4307,
      "በምርጫ": 4308,
      "ድሮች": 4309,
      "ዓመታዊ": 4310,
      "ሀይ": 4311,
      "ማረጋገጥ": 4312,
      "ቅዱስ": 4313,
      "ደብረ": 4314,
      "ጀመርያ": 4315,
      "ቦልቻ": 4316,
      "ትግሎ": 4317,
      "ካቢኔ": 4318,
      "ዎቹን": 4319,
      "የሩ": 4320,
      "ደላ": 4321,
      "ለማድረስ": 4322,
      "እንዲመሰረቱ": 4323,
      "ማስረጃ": 4324,
      "ሰጥታል": 4325,
      "የሚያደርግ": 4326,
      "ህዝቡ": 4327,
      "አብዱል": 4328,
      "የሚሰሙባቸው": 4329,
      "ማገዟ": 4330,
      "ትግሎችን": 4331,
      "vi": 4332,
      "ልክ": 4333,
      "በወቅቱ": 4334,
      "ዘገባ": 4335,
      "እንዲሆኑ": 4336,
      "አቅራቢ": 4337,
      "ሚካኤል": 4338,
      "The": 4339,
      "ሊሆን": 4340,
      "ሹመት": 4341,
      "ከክልሉ": 4342,
      "ጎማ": 4343,
      "ፍቲ": 4344,
      "ደግፍ": 4345,
      "ሦስተኛ": 4346,
      "መለከት": 4347,
      "እንደሚያስፈልግ": 4348,
      "ማሳያ": 4349,
      "የቆየው": 4350,
      "ሃሳብ": 4351,
      "ሰማ": 4352,
      "በሕዝብ": 4353,
      "ዮር": 4354,
      "መስኮች": 4355,
      "AL": 4356,
      "ll": 4357,
      "ለል": 4358,
      "በቻይና": 4359,
      "በዘላቂነት": 4360,
      "ቶታል": 4361,
      "መያዙን": 4362,
      "ሻምፒ": 4363,
      "የዲጂታል": 4364,
      "ተወዳ": 4365,
      "እጅግ": 4366,
      "አባላትን": 4367,
      "በተቀ": 4368,
      "አስተያ": 4369,
      "ውድቅ": 4370,
      "የመስኖ": 4371,
      "መፍትሄ": 4372,
      "ግንዛቤ": 4373,
      "ከሉ": 4374,
      "የሚችሉ": 4375,
      "ተወሰነ": 4376,
      "ople": 4377,
      "አመልክ": 4378,
      "አበበ": 4379,
      "ገለጻ": 4380,
      "በልዩ": 4381,
      "ከቀ": 4382,
      "ገብተዋል": 4383,
      "ረጋገጠ": 4384,
      "ማንኛውም": 4385,
      "ሲቪል": 4386,
      "ስደተኞች": 4387,
      "ዓር": 4388,
      "የፓ": 4389,
      "2007": 4390,
      "በመገኘት": 4391,
      "ALT": 4392,
      "3ኛ": 4393,
      "መዳረ": 4394,
      "ራቸውን": 4395,
      "በ2014": 4396,
      "300": 4397,
      "ተጠናቀቀ": 4398,
      "ታች": 4399,
      "የከፍተኛ": 4400,
      "የአሸባሪው": 4401,
      "ጊዜው": 4402,
      "su": 4403,
      "ክረው": 4404,
      "የአፈር": 4405,
      "በአው": 4406,
      "እንዲቀጥል": 4407,
      "ድንጋ": 4408,
      "ከፋለ": 4409,
      "ሕገወጥ": 4410,
      "ኖቬሽንና": 4411,
      "ማስተባበሪያ": 4412,
      "Eng": 4413,
      "ሊትር": 4414,
      "ሕክምና": 4415,
      "ማግኘት": 4416,
      "አፋር": 4417,
      "የውስጥ": 4418,
      "ያደረገው": 4419,
      "ገናኘ": 4420,
      "የከተማዋ": 4421,
      "ለቀቅ": 4422,
      "መሰብሰቡን": 4423,
      "ዘንድሮው": 4424,
      "ማክሰኞ": 4425,
      "Bo": 4426,
      "ለየት": 4427,
      "ሶችን": 4428,
      "በጀ": 4429,
      "ወዳጅ": 4430,
      "ይዘ": 4431,
      "የተጀመረው": 4432,
      "አንደኛ": 4433,
      "እንዲያደርጉ": 4434,
      "አውደ": 4435,
      "ነፃነት": 4436,
      "መልዕክተኛ": 4437,
      "di": 4438,
      "ለጥ": 4439,
      "የድርድር": 4440,
      "ግዚ": 4441,
      "የተሰጠ": 4442,
      "ያቀረቡትን": 4443,
      "Pe": 4444,
      "ለሶስት": 4445,
      "ዐቀፍ": 4446,
      "የሚደረግ": 4447,
      "ዩኒቨርስቲ": 4448,
      "ካሚል": 4449,
      "feature": 4450,
      "በይነ": 4451,
      "ተመድ": 4452,
      "ከ20": 4453,
      "እንዲፈታ": 4454,
      "ተመላክቷል": 4455,
      "ኤክስ": 4456,
      "ጫወ": 4457,
      "ተናዊ": 4458,
      "ነበረ": 4459,
      "የቦ": 4460,
      "ፈጣሪ": 4461,
      "45": 4462,
      "no": 4463,
      "ለሰላም": 4464,
      "በክ": 4465,
      "ታቅ": 4466,
      "ክፍት": 4467,
      "ማዕከላዊ": 4468,
      "መፍትሔ": 4469,
      "ማጣሪያ": 4470,
      "ሐፊ": 4471,
      "ተችሏል": 4472,
      "ከሚያ": 4473,
      "ጥበብ": 4474,
      "የሕክምና": 4475,
      "ቀረበው": 4476,
      "ተቀባይነት": 4477,
      "መምጣ": 4478,
      "በፍጥነት": 4479,
      "98": 4480,
      "ላችን": 4481,
      "ረብ": 4482,
      "ሬዲ": 4483,
      "ዘም": 4484,
      "የጉምሩክ": 4485,
      "ጃን": 4486,
      "ኦርዲን": 4487,
      "መተግ": 4488,
      "ውሰድ": 4489,
      "ግሪ": 4490,
      "አመራሮችና": 4491,
      "የሲቪል": 4492,
      "ሣህለወርቅ": 4493,
      "ረጅም": 4494,
      "ጠኞች": 4495,
      "የመሪዎች": 4496,
      "Walta": 4497,
      "ላው": 4498,
      "ሕብረት": 4499,
      "መሄ": 4500,
      "ሙፈ": 4501,
      "ምሽት": 4502,
      "በሽብር": 4503,
      "ድሃ": 4504,
      "የሚቆ": 4505,
      "ስልምና": 4506,
      "ሰላምን": 4507,
      "አለፈ": 4508,
      "Comment": 4509,
      "so": 4510,
      "መጨ": 4511,
      "ምራት": 4512,
      "ቀውስ": 4513,
      "ቂት": 4514,
      "ገደብ": 4515,
      "ፋስ": 4516,
      "የተመለከቱ": 4517,
      "የሚመራ": 4518,
      "ለንተናዊ": 4519,
      "አምራ": 4520,
      "እንደሚያደርግ": 4521,
      "ስርዓቱ": 4522,
      "ሠራዊቱ": 4523,
      "በአጭር": 4524,
      "አምባሳደሮች": 4525,
      "ይገኛሉ": 4526,
      "በጤና": 4527,
      "እንደማ": 4528,
      "የተፈናቀሉ": 4529,
      "ሕዝቡ": 4530,
      "አመታት": 4531,
      "መጻ": 4532,
      "ማለታቸውን": 4533,
      "featured": 4534,
      "WaltaTV": 4535,
      "የቡና": 4536,
      "ፕሮግራ": 4537,
      "የክልሉን": 4538,
      "የሆነውን": 4539,
      "ፈረንጆቹ": 4540,
      "ሆናለች": 4541,
      "ተቃውሞ": 4542,
      "ሜትሪክ": 4543,
      "አቡነ": 4544,
      "People": 4545,
      "ለጎን": 4546,
      "የተደረገው": 4547,
      "ደራጀት": 4548,
      "አሰራር": 4549,
      "ተጀምሯል": 4550,
      "ታከለ": 4551,
      "ናዳ": 4552,
      "የብልፅግና": 4553,
      "የአገ": 4554,
      "እንዲያስ": 4555,
      "ጉብኝ": 4556,
      "ached": 4557,
      "ካፒታል": 4558,
      "ቲዊተር": 4559,
      "የላቀ": 4560,
      "ያሰለ": 4561,
      "እየተከናወኑ": 4562,
      "አስቸጋሪ": 4563,
      "መግባባት": 4564,
      "አይደለም": 4565,
      "Engage": 4566,
      "ነበሩ": 4567,
      "ጧል": 4568,
      "መፍጠር": 4569,
      "Boost": 4570,
      "400": 4571,
      "መሩ": 4572,
      "ከደቡብ": 4573,
      "ከአፍሪካ": 4574,
      "በአር": 4575,
      "ድጋፉን": 4576,
      "አገሪቱ": 4577,
      "አሳስበዋል": 4578,
      "ur": 4579,
      "የመገናኛ": 4580,
      "36": 4581,
      "ራህ": 4582,
      "የቴክኖሎጂ": 4583,
      "ፈሩት": 4584,
      "ታውቋል": 4585,
      "ራችሁን": 4586,
      "ቀጠሮ": 4587,
      "ሊቲ": 4588,
      "በድሪ": 4589,
      "ከሆነ": 4590,
      "የምርት": 4591,
      "ግለሰቡ": 4592,
      "አትሌቲክስ": 4593,
      "ራሱን": 4594,
      "በ2015": 4595,
      "ስተው": 4596,
      "ገልግሎት": 4597,
      "ለማስጠበቅ": 4598,
      "አካላትን": 4599,
      "ጁንታ": 4600,
      "ፋብሪካዎች": 4601,
      "Engagements": 4602,
      "ATV": 4603,
      "WALT": 4604,
      "አገልግሎቶች": 4605,
      "የመጀመሪያው": 4606,
      "ATVEth": 4607,
      "WALTATVEth": 4608,
      "ሹም": 4609,
      "ቱሉ": 4610,
      "የተገነባው": 4611,
      "የአደጋ": 4612,
      "እንዲቀ": 4613,
      "ግብዓ": 4614,
      "ትራምፕ": 4615,
      "_info": 4616,
      "አስተዋፅ": 4617,
      "walta_info": 4618,
      "ልጅ": 4619,
      "ሰሞ": 4620,
      "ሰዓ": 4621,
      "ቅድሚያ": 4622,
      "ይካሄ": 4623,
      "የአካል": 4624,
      "ደረስ": 4625,
      "መድኃ": 4626,
      "ማዕከላት": 4627,
      "ሮቹ": 4628,
      "የትብብር": 4629,
      "ተጠቃሚነት": 4630,
      "6ኛ": 4631,
      "95": 4632,
      "ሸን": 4633,
      "አለማ": 4634,
      "ኢድ": 4635,
      "ጥብ": 4636,
      "ፍቱ": 4637,
      "አብራችሁን": 4638,
      "ቡድኖች": 4639,
      "አርቲ": 4640,
      "የቁም": 4641,
      "ተፈራረመ": 4642,
      "ልታ": 4643,
      "አደር": 4644,
      "የወጣ": 4645,
      "ጋራ": 4646,
      "መረጡ": 4647,
      "ist": 4648,
      "ሌተናል": 4649,
      "ምሳ": 4650,
      "ነክ": 4651,
      "ክሲ": 4652,
      "የዋ": 4653,
      "የቴክኒክ": 4654,
      "ዩም": 4655,
      "አርባ": 4656,
      "ማግሌ": 4657,
      "ከ8": 4658,
      "የቅድመ": 4659,
      "ድህ": 4660,
      "ፍል": 4661,
      "እንስሳት": 4662,
      "ለችው": 4663,
      "ጁንታው": 4664,
      "ተወስኗል": 4665,
      "qu": 4666,
      "ሽማግሌ": 4667,
      "በሕግ": 4668,
      "በሰላማዊ": 4669,
      "አረንጓዴ": 4670,
      "የልዑካን": 4671,
      "ጎራ": 4672,
      "የተነሳ": 4673,
      "የአሸ": 4674,
      "ተነገረ": 4675,
      "ጥንቃቄ": 4676,
      "ኅብረተሰቡ": 4677,
      "ነን": 4678,
      "ዩሮ": 4679,
      "ጀግ": 4680,
      "የሚጠ": 4681,
      "con": 4682,
      "አስታወቀች": 4683,
      "ባስተላለፉት": 4684,
      "ኞቹ": 4685,
      "የሶስት": 4686,
      "በተያዘው": 4687,
      "በማዕ": 4688,
      "ምርቶችን": 4689,
      "ብዙሃን": 4690,
      "ምረቻ": 4691,
      "መዳረሻ": 4692,
      "Like": 4693,
      "ቀዳሚ": 4694,
      "ዳሮ": 4695,
      "በዓላት": 4696,
      "ህዝባዊ": 4697,
      "አዴግ": 4698,
      "ex": 4699,
      "ምድብ": 4700,
      "በረሰቡ": 4701,
      "ity": 4702,
      "ለማሳካት": 4703,
      "የገቢዎች": 4704,
      "ፍቃድ": 4705,
      "ሁለንተናዊ": 4706,
      "ሠራዊ": 4707,
      "ናቸውን": 4708,
      "ግማሽ": 4709,
      "ፕሬስ": 4710,
      "34": 4711,
      "በሥራ": 4712,
      "ቲን": 4713,
      "ትግበራ": 4714,
      "እሰ": 4715,
      "የለ": 4716,
      "የማስከበር": 4717,
      "ግዴ": 4718,
      "በአዳማ": 4719,
      "ከናው": 4720,
      "አክሲዮን": 4721,
      "ጠይቀዋል": 4722,
      "ለሁለት": 4723,
      "ለደረሰባቸው": 4724,
      "ቢዝ": 4725,
      "እንደሚገኙ": 4726,
      "አሳሰቡ": 4727,
      "ጠናቀቀው": 4728,
      "የተሰማሩ": 4729,
      "እመቤት": 4730,
      "ማቅረ": 4731,
      "ዕቃዎች": 4732,
      "ፈተ": 4733,
      "ፈጸመው": 4734,
      "አይነት": 4735,
      "ኢንተርናሽናል": 4736,
      "ሰሞኑን": 4737,
      "ለሚያ": 4738,
      "መተ": 4739,
      "በቦ": 4740,
      "ዉን": 4741,
      "ዕለ": 4742,
      "የወጣቶች": 4743,
      "በመከላከያ": 4744,
      "ማሳደግ": 4745,
      "መሃመድ": 4746,
      "ሰራዊቱ": 4747,
      "አጠቃ": 4748,
      "ጊዮር": 4749,
      "ግሉ": 4750,
      "ለውጭ": 4751,
      "ቀጥሉ": 4752,
      "ገበታ": 4753,
      "መሥራት": 4754,
      "ሉዓላዊነት": 4755,
      "አማካኝነት": 4756,
      "መወ": 4757,
      "ሸጥ": 4758,
      "ከስ": 4759,
      "የስንዴ": 4760,
      "በማጠናከር": 4761,
      "ምንጮች": 4762,
      "የሚያስች": 4763,
      "ጊዮርጊ": 4764,
      "የመኖሪያ": 4765,
      "ተቀብለው": 4766,
      "ማመንጫ": 4767,
      "38": 4768,
      "በመጀመሪያ": 4769,
      "በማረሚያ": 4770,
      "መስጫ": 4771,
      "ለምንም": 4772,
      "ውጣጡ": 4773,
      "በመፍጠር": 4774,
      "የደረ": 4775,
      "የ20": 4776,
      "የተሳ": 4777,
      "የመጨረሻ": 4778,
      "የሚገኝ": 4779,
      "ተፈራር": 4780,
      "ምግቦች": 4781,
      "ሊት": 4782,
      "ጠራው": 4783,
      "መረጋጋት": 4784,
      "ይካሄዳል": 4785,
      "ምነት": 4786,
      "ሲሆኑ": 4787,
      "ፋፊያ": 4788,
      "ጠናቸውን": 4789,
      "ማዕድን": 4790,
      "ከሀ": 4791,
      "ዜና": 4792,
      "ጋጥ": 4793,
      "ጎጂ": 4794,
      "ብርቱ": 4795,
      "ገራቸውን": 4796,
      "ሆናችሁ": 4797,
      "ጥላሁን": 4798,
      "ባለሥልጣናት": 4799,
      "ሻው": 4800,
      "በሰው": 4801,
      "ባባ": 4802,
      "የሥነ": 4803,
      "መልከት": 4804,
      "ድጋፉ": 4805,
      "ወሰዱ": 4806,
      "ጀመረውን": 4807,
      "እንደማይቻል": 4808,
      "መደራ": 4809,
      "ሜኑ": 4810,
      "በጉ": 4811,
      "ክሌ": 4812,
      "የተጣ": 4813,
      "ለቀቁ": 4814,
      "ሰለሞን": 4815,
      "መሠረተባቸው": 4816,
      "ግዙፍ": 4817,
      "ነጋዴዎች": 4818,
      "ድንጋጌ": 4819,
      "መቶ": 4820,
      "የ2015": 4821,
      "የገቡ": 4822,
      "የሚሉ": 4823,
      "በረከቱ": 4824,
      "ጠቅሰዋል": 4825,
      "በማኅበራዊ": 4826,
      "ኮሚሽነ": 4827,
      "በከተማዋ": 4828,
      "አብርሃም": 4829,
      "ab": 4830,
      "ጀኔራል": 4831,
      "ጥረ": 4832,
      "የሚደረገው": 4833,
      "ጎልበት": 4834,
      "ራሽ": 4835,
      "ራጮች": 4836,
      "ቅን": 4837,
      "የተጎዱ": 4838,
      "ብርብ": 4839,
      "ፍትሐ": 4840,
      "ማረሚያ": 4841,
      "ምቀት": 4842,
      "ምህር": 4843,
      "መላሽ": 4844,
      "የተወሰነ": 4845,
      "ሕንፃ": 4846,
      "መያዛ": 4847,
      "ታሙ": 4848,
      "የሟ": 4849,
      "የዲ": 4850,
      "አለባቸው": 4851,
      "የሰጡት": 4852,
      "አትሌቶች": 4853,
      "ቢዝነስ": 4854,
      "li": 4855,
      "wh": 4856,
      "ለየ": 4857,
      "ዊያን": 4858,
      "በሰበ": 4859,
      "ኤሌክትሮ": 4860,
      "እውነ": 4861,
      "ሪፎርም": 4862,
      "ዓርብ": 4863,
      "ለፈ": 4864,
      "ምድር": 4865,
      "ሰዎችን": 4866,
      "የ2014": 4867,
      "ጹም": 4868,
      "የተያዙ": 4869,
      "እንዲጠናቀቅ": 4870,
      "መካከለኛ": 4871,
      "እንግሊዝ": 4872,
      "48": 4873,
      "መጠቀም": 4874,
      "ብሩ": 4875,
      "የተገኘው": 4876,
      "እንዲወጣ": 4877,
      "ሐሙስ": 4878,
      "ማኔ": 4879,
      "የሳይበር": 4880,
      "ወያየ": 4881,
      "በኮሮና": 4882,
      "በቦሌ": 4883,
      "ዳማዊት": 4884,
      "የሚዲያ": 4885,
      "ሠራተኛ": 4886,
      "በስፋት": 4887,
      "በሀረሪ": 4888,
      "ሊያስ": 4889,
      "በንግድ": 4890,
      "ችውን": 4891,
      "የወጪ": 4892,
      "ተቋሙ": 4893,
      "ተፈጥሮ": 4894,
      "000": 4895,
      "ይቅርታ": 4896,
      "ዝውውር": 4897,
      "ስኮ": 4898,
      "ተመስ": 4899,
      "ከባቢ": 4900,
      "ድጎማ": 4901,
      "በቀጣ": 4902,
      "መሳሪያዎች": 4903,
      "ሃዊ": 4904,
      "ለሙ": 4905,
      "ሸጋ": 4906,
      "በገንዘብ": 4907,
      "ከብር": 4908,
      "ዦር": 4909,
      "የሽግግር": 4910,
      "ያለምንም": 4911,
      "ጥቆማ": 4912,
      "መርማሪ": 4913,
      "ተከበረ": 4914,
      "ወሰነ": 4915,
      "የሚገኙት": 4916,
      "ብሎም": 4917,
      "ተግዳሮ": 4918,
      "የሐረሪ": 4919,
      "ተከታታይ": 4920,
      "ገለል": 4921,
      "ከተማው": 4922,
      "እንዳስታ": 4923,
      "ታቸውም": 4924,
      "የአካባቢው": 4925,
      "ጳጉሜ": 4926,
      "ዕጣ": 4927,
      "ጀግና": 4928,
      "ፀጋ": 4929,
      "የሕወሓት": 4930,
      "ተከታዮች": 4931,
      "የሚያደርገውን": 4932,
      "ቶቻችን": 4933,
      "ኮማን": 4934,
      "ማስተማር": 4935,
      "ለህዝብ": 4936,
      "ሳምን": 4937,
      "ከው": 4938,
      "ከቻይና": 4939,
      "ጣሚ": 4940,
      "ለመሥራት": 4941,
      "ብረቱ": 4942,
      "ተደማ": 4943,
      "የሚሰጥ": 4944,
      "መስክ": 4945,
      "እንዳላቸው": 4946,
      "ድልድ": 4947,
      "75": 4948,
      "ኡጋንዳ": 4949,
      "ያካተ": 4950,
      "ፍና": 4951,
      "እንደሚሆን": 4952,
      "ማስጀመሪያ": 4953,
      "ያንዳን": 4954,
      "ስለሆናችሁ": 4955,
      "ባሰፈሩት": 4956,
      "አገኘሁ": 4957,
      "ርብርብ": 4958,
      "የወርቅ": 4959,
      "ለትን": 4960,
      "ወቁት": 4961,
      "በጅማ": 4962,
      "39": 4963,
      "ተመሳሳይ": 4964,
      "ክበር": 4965,
      "መንግሥቱ": 4966,
      "ቀርበው": 4967,
      "መንግስታዊ": 4968,
      "መምህራን": 4969,
      "ተፈናቃዮች": 4970,
      "ህወሃት": 4971,
      "በ20": 4972,
      "ዊት": 4973,
      "ያስታ": 4974,
      "ጋዜጠኞች": 4975,
      "አበረታ": 4976,
      "የሁለቱ": 4977,
      "የተገነቡ": 4978,
      "ለማስተ": 4979,
      "ያለችው": 4980,
      "የሰላምና": 4981,
      "ቀርብም": 4982,
      "65": 4983,
      "መድን": 4984,
      "መከት": 4985,
      "መጨረሻ": 4986,
      "ባች": 4987,
      "ዐቃቤ": 4988,
      "ሃይሎች": 4989,
      "ቅዳ": 4990,
      "ነዚህ": 4991,
      "ነሪንግ": 4992,
      "ጅግጅጋ": 4993,
      "በተግባር": 4994,
      "ተከሰ": 4995,
      "ከ10": 4996,
      "ሽፋን": 4997,
      "ኢንዱስትሪዎች": 4998,
      "ወልደ": 4999,
      "መሰረታዊ": 5000,
      "ሸነፍ": 5001,
      "il": 5002,
      "ሐይ": 5003,
      "ሪታ": 5004,
      "የፀረ": 5005,
      "አሳፋሪ": 5006,
      "የክረምት": 5007,
      "ሥርዓቱ": 5008,
      "ዕድሜ": 5009,
      "ስኳር": 5010,
      "በሆኑ": 5011,
      "ወንዝ": 5012,
      "ማጭ": 5013,
      "በአስቸኳይ": 5014,
      "ኦነግ": 5015,
      "ከተማን": 5016,
      "የኢሬቻ": 5017,
      "ስለሺ": 5018,
      "እንግዶች": 5019,
      "ማንድ": 5020,
      "ሸም": 5021,
      "በሞት": 5022,
      "ትራንስ": 5023,
      "ናጀት": 5024,
      "ዳጊ": 5025,
      "ፋፋት": 5026,
      "ማሪዎች": 5027,
      "አብይ": 5028,
      "ኤጀንሲው": 5029,
      "አሸነፈ": 5030,
      "ሀሰተኛ": 5031,
      "ህነግ": 5032,
      "ልጆች": 5033,
      "ተያዙ": 5034,
      "ታዬ": 5035,
      "አቻ": 5036,
      "ኡማ": 5037,
      "ያስተ": 5038,
      "ፎችን": 5039,
      "የተሳተፉ": 5040,
      "መለሰ": 5041,
      "አቅርቧል": 5042,
      "አያሌ": 5043,
      "ጣሊያኑ": 5044,
      "በመሰረታዊ": 5045,
      "ያሰለጠናቸውን": 5046,
      "ማእ": 5047,
      "ቃቸው": 5048,
      "በኢኮኖሚ": 5049,
      "እሴት": 5050,
      "የ10": 5051,
      "ገስ": 5052,
      "የህዝ": 5053,
      "አውቶ": 5054,
      "Re": 5055,
      "ተኮር": 5056,
      "ተላለፍ": 5057,
      "አገራቸው": 5058,
      "እኛ": 5059,
      "እየመ": 5060,
      "የብር": 5061,
      "የችግኝ": 5062,
      "ደሴ": 5063,
      "ፍቶ": 5064,
      "በመግለጽ": 5065,
      "ለማስከበር": 5066,
      "መቀጠ": 5067,
      "ሁሉን": 5068,
      "ገፃቸው": 5069,
      "ሙሌት": 5070,
      "ደቂ": 5071,
      "ዲሱ": 5072,
      "ነጋገር": 5073,
      "አህጉ": 5074,
      "ቁርጠኛ": 5075,
      "በጦርነት": 5076,
      "ቱት": 5077,
      "የዳያስፖራ": 5078,
      "መስዋዕትነት": 5079,
      "ብረተሰቡን": 5080,
      "ፓርላማው": 5081,
      "ክላስተር": 5082,
      "መኪና": 5083,
      "ብላ": 5084,
      "ተኩ": 5085,
      "የኢኖቬሽንና": 5086,
      "ካርታ": 5087,
      "የሶማሊያ": 5088,
      "ጋዴ": 5089,
      "ፎካ": 5090,
      "የአለም": 5091,
      "የምና": 5092,
      "በሕገወጥ": 5093,
      "የወደሙ": 5094,
      "ne": 5095,
      "መካሄድ": 5096,
      "በመን": 5097,
      "በመንግስት": 5098,
      "የልዩ": 5099,
      "የተቃ": 5100,
      "የተዘጋጀ": 5101,
      "እንዲደረስ": 5102,
      "በመተከል": 5103,
      "በተለያየ": 5104,
      "ምርጥ": 5105,
      "ዘርፈ": 5106,
      "ንቀሳቀስ": 5107,
      "ሰዓታት": 5108,
      "ሟላት": 5109,
      "ተያዘ": 5110,
      "ካለው": 5111,
      "ፍጨ": 5112,
      "ደረገውን": 5113,
      "እስረኛ": 5114,
      "ውጤቶች": 5115,
      "ድሮስ": 5116,
      "እህል": 5117,
      "……": 5118,
      "ይልቅ": 5119,
      "ፈተናዎች": 5120,
      "ሪፍ": 5121,
      "ሳራ": 5122,
      "ሪያት": 5123,
      "በሚደረገው": 5124,
      "ሀገርን": 5125,
      "እንዲያገኙ": 5126,
      "መኮን": 5127,
      "ብሔረሰብ": 5128,
      "ሻምፒዮና": 5129,
      "አስተዋፅኦ": 5130,
      "ate": 5131,
      "በ19": 5132,
      "ቢሾ": 5133,
      "ለመሳተፍ": 5134,
      "አረብ": 5135,
      "መቆየቱን": 5136,
      "በሚቻልበት": 5137,
      "ሕይወ": 5138,
      "ሙኤል": 5139,
      "ሪስ": 5140,
      "ቁልፍ": 5141,
      "ዕቃ": 5142,
      "ገዥ": 5143,
      "የሚገባ": 5144,
      "በመጪው": 5145,
      "አስተማማ": 5146,
      "ግብጽ": 5147,
      "ለማስጀመር": 5148,
      "ተፈናቅ": 5149,
      "መጻሕ": 5150,
      "በሉ": 5151,
      "አሥር": 5152,
      "አሰል": 5153,
      "በማን": 5154,
      "ማለትም": 5155,
      "ርዕይ": 5156,
      "መሠረታዊ": 5157,
      "መስማማቱ": 5158,
      "55": 5159,
      "ሎሪ": 5160,
      "ሪል": 5161,
      "ሲሚንቶ": 5162,
      "ሶሳ": 5163,
      "ለማስገባት": 5164,
      "መስተዳደር": 5165,
      "ለአገር": 5166,
      "ሕዳሴ": 5167,
      "ሠል": 5168,
      "በቴክኖሎጂ": 5169,
      "መጠጥ": 5170,
      "ያልሆኑ": 5171,
      "ከማረሚያ": 5172,
      "ሪፐብሊክ": 5173,
      "በካ": 5174,
      "ዕጩ": 5175,
      "ይሰ": 5176,
      "የተመድ": 5177,
      "ስታን": 5178,
      "..": 5179,
      "ምራ": 5180,
      "ቆሙ": 5181,
      "ተሻገር": 5182,
      "ኢንተርፕራይ": 5183,
      "ረቤት": 5184,
      "አለው": 5185,
      "የሙ": 5186,
      "የደም": 5187,
      "የጎንደር": 5188,
      "ጠላ": 5189,
      "በታሪክ": 5190,
      "ኮምቦልቻ": 5191,
      "ተግባራትን": 5192,
      "አስተማማኝ": 5193,
      "በሞ": 5194,
      "ባይል": 5195,
      "ከጎ": 5196,
      "ጸደቀ": 5197,
      "ፍተሻ": 5198,
      "እንደሚካሄድ": 5199,
      "ጊዮርጊስ": 5200,
      "በፀጥታ": 5201,
      "በማቅረብ": 5202,
      "ደራጀ": 5203,
      "ሰልጠኛ": 5204,
      "ሕዝባዊ": 5205,
      "ቤተክርስቲያን": 5206,
      "ታወቀው": 5207,
      "አደረጃጀት": 5208,
      "ተደማጭነት": 5209,
      "ልውው": 5210,
      "ቪዬ": 5211,
      "ቴዎ": 5212,
      "የያዘ": 5213,
      "የደህንነት": 5214,
      "የምርምር": 5215,
      "ለመጀመሪያ": 5216,
      "ታደግ": 5217,
      "ከልክ": 5218,
      "አደሩ": 5219,
      "ታማዦር": 5220,
      "ማማች": 5221,
      "ሃይማኖ": 5222,
      "ሕአዴግ": 5223,
      "ደሯን": 5224,
      "ጥሰ": 5225,
      "ጥይት": 5226,
      "የመጠ": 5227,
      "አዳራሽ": 5228,
      "ቀርቧል": 5229,
      "በእስራኤልና": 5230,
      "ለመሰብሰብ": 5231,
      "በ1": 5232,
      "ይደረ": 5233,
      "ጽኑ": 5234,
      "ፋው": 5235,
      "በቀጥታ": 5236,
      "ወረዳው": 5237,
      "ፍትሃዊ": 5238,
      "አማራጮች": 5239,
      "የቀረቡ": 5240,
      "ቢሾፍቱ": 5241,
      "ማሪያ": 5242,
      "ምሩ": 5243,
      "ሼክ": 5244,
      "ቶሪ": 5245,
      "የመሰረተ": 5246,
      "የጣሊያኑ": 5247,
      "ጥምረት": 5248,
      "አካዳሚ": 5249,
      "አደራ": 5250,
      "ለሌ": 5251,
      "መውን": 5252,
      "ቅጣት": 5253,
      "ቆጠ": 5254,
      "በዞኑ": 5255,
      "ኦዲ": 5256,
      "ይድ": 5257,
      "ይቀጥ": 5258,
      "ዳግ": 5259,
      "የሚደረገውን": 5260,
      "እንዲለቀቅ": 5261,
      "ትርፍ": 5262,
      "አንጻ": 5263,
      "ስታዲ": 5264,
      "በአንድነት": 5265,
      "እኩል": 5266,
      "ተሾመ": 5267,
      "ሎጅ": 5268,
      "ሒሳብ": 5269,
      "ርእሰ": 5270,
      "ትግል": 5271,
      "አፀደቀ": 5272,
      "ther": 5273,
      "ወስነዋል": 5274,
      "ስማማቷ": 5275,
      "የምዕራብ": 5276,
      "ማካሄድ": 5277,
      "ራይዞ": 5278,
      "ነጥቦቹ": 5279,
      "ጠየቀሃማስ": 5280,
      "በነበሩ": 5281,
      "ስለመስማማቷ": 5282,
      "የኢንፎርሜሽን": 5283,
      "የቀጠለችው": 5284,
      "መደራደሯን": 5285,
      "ሸምጋይ": 5286,
      "ከሳ": 5287,
      "የብሄራዊ": 5288,
      "ፍቅር": 5289,
      "ቤተሰብ": 5290,
      "ተባለ42ኛ": 5291,
      "Post": 5292,
      "ሂም": 5293,
      "ሰጥቶ": 5294,
      "የማድረግ": 5295,
      "ተስማሙኳታር": 5296,
      "የመልካም": 5297,
      "መሄዱን": 5298,
      "ዕውቅና": 5299,
      "ዴላ": 5300,
      "ጥሰት": 5301,
      "ፋቸውን": 5302,
      "የሚሳተፉ": 5303,
      "ወንዶች": 5304,
      "የሕዝ": 5305,
      "ጉባዔው": 5306,
      "ማስተላለ": 5307,
      "አስተያየት": 5308,
      "ሶስተኛ": 5309,
      "ቀሪ": 5310,
      "በፈረንጆቹ": 5311,
      "ተሞ": 5312,
      "ነውን": 5313,
      "በሚመለከት": 5314,
      "የሲሚንቶ": 5315,
      "ክርስቲያ": 5316,
      "መገኘቱን": 5317,
      "የጠቀሱ": 5318,
      "ሄዱ": 5319,
      "ዛን": 5320,
      "ጄነራል": 5321,
      "ፋውን": 5322,
      "የአገልግሎት": 5323,
      "በተደጋጋሚ": 5324,
      "ማዕቀፍ": 5325,
      "አሸን": 5326,
      "ተወያይቶ": 5327,
      "መታወቂያ": 5328,
      "ያቀረቡት": 5329,
      "ul": 5330,
      "ሟላ": 5331,
      "ሬር": 5332,
      "በኬንያ": 5333,
      "ኢብራ": 5334,
      "ከኢ": 5335,
      "እንደሚደረግ": 5336,
      "ስቲክ": 5337,
      "መለከተው": 5338,
      "ቋረጥ": 5339,
      "ዋለ": 5340,
      "የጫ": 5341,
      "ጎት": 5342,
      "ጨው": 5343,
      "ፕሬዚደንት": 5344,
      "ሰባቸውን": 5345,
      "ዘርፉን": 5346,
      "የጎላ": 5347,
      "መክረዋል": 5348,
      "ተከሳሽ": 5349,
      "ኢንተርፕራይዞ": 5350,
      "የሟች": 5351,
      "ያካተተ": 5352,
      "ሙፍቲ": 5353,
      "ረቡ": 5354,
      "ሬቶች": 5355,
      "ርና": 5356,
      "ከሀገር": 5357,
      "የብድር": 5358,
      "ፀድ": 5359,
      "ፅኑ": 5360,
      "መንፈ": 5361,
      "stu": 5362,
      "መላከተ": 5363,
      "አቅመ": 5364,
      "አማረ": 5365,
      "የስደተኞች": 5366,
      "አማካይነት": 5367,
      "32": 5368,
      "97": 5369,
      "per": 5370,
      "ላሴ": 5371,
      "ማምረት": 5372,
      "ሪሃት": 5373,
      "አካሄደ": 5374,
      "የቦርድ": 5375,
      "የኬንያ": 5376,
      "አስታውሰዋል": 5377,
      "ከመከላከያ": 5378,
      "ከፋፈ": 5379,
      "ማስተካ": 5380,
      "ኢንጂነሪንግ": 5381,
      "ለታራሚ": 5382,
      "ተገቢውን": 5383,
      "ጋዜጣዊ": 5384,
      "አበረታች": 5385,
      "ህጋዊ": 5386,
      "አስፈት": 5387,
      "በተሰ": 5388,
      "ተወላጆች": 5389,
      "ሔክታር": 5390,
      "ሜጀር": 5391,
      "ዜጋ": 5392,
      "የእርሻ": 5393,
      "ጥፋ": 5394,
      "ላይም": 5395,
      "ደንበኞች": 5396,
      "ሁኔታዎች": 5397,
      "በመሆኑም": 5398,
      "መዋቅ": 5399,
      "ተጠናቆ": 5400,
      "መወሰኑን": 5401,
      "በፍቅረ": 5402,
      "ቪዬሽን": 5403,
      "አኳ": 5404,
      "ፁም": 5405,
      "በተጠናቀቀው": 5406,
      "ስተዋሉ": 5407,
      "የሚመች": 5408,
      "ብናል": 5409,
      "ተጫ": 5410,
      "ወጫ": 5411,
      "ጫፎ": 5412,
      "የአን": 5413,
      "ጊዜያት": 5414,
      "የመስቀል": 5415,
      "ሚንስት": 5416,
      "ክብደቱን": 5417,
      "አምራቾች": 5418,
      "ሊጉ": 5419,
      "በነገ": 5420,
      "ቶኒ": 5421,
      "የ5": 5422,
      "የመክ": 5423,
      "አዳማ": 5424,
      "ዳይሬክቶ": 5425,
      "በደብረ": 5426,
      "በረታቻ": 5427,
      "ፈረንስ": 5428,
      "ዳኞችም": 5429,
      "am": 5430,
      "ለጠቅላይ": 5431,
      "ምስራቅ": 5432,
      "ሳዊ": 5433,
      "በ2013": 5434,
      "ባውያን": 5435,
      "ተዘጋጅ": 5436,
      "ገዱ": 5437,
      "ፋራህ": 5438,
      "የሚወስደው": 5439,
      "የመጀመርያ": 5440,
      "ገለጸች": 5441,
      "የሚያሳ": 5442,
      "መሆኑም": 5443,
      "ሁሉንም": 5444,
      "ሀገራቱ": 5445,
      "የእንግ": 5446,
      "ጎበኘ": 5447,
      "ሙፈሪሃት": 5448,
      "መፈጸ": 5449,
      "ሳያ": 5450,
      "ስዩም": 5451,
      "ኛል": 5452,
      "እያለ": 5453,
      "ካሎሪ": 5454,
      "ኮሬር": 5455,
      "የለውጥ": 5456,
      "የፓርቲው": 5457,
      "ጁላ": 5458,
      "ጣቸውን": 5459,
      "አሳል": 5460,
      "አለብን": 5461,
      "መድረኩ": 5462,
      "አያቀርብም": 5463,
      "ምጣኔ": 5464,
      "የተቋቋመው": 5465,
      "ለታራሚው": 5466,
      "አስፈትቶታል": 5467,
      "በፍቅረኛው": 5468,
      "ለፍርድ": 5469,
      "ሥም": 5470,
      "ሾቹ": 5471,
      "ፕሬዝዳን": 5472,
      "essay": 5473,
      "ተፈናቅለው": 5474,
      "ራረ": 5475,
      "ቆች": 5476,
      "ከድር": 5477,
      "የጊዜ": 5478,
      "ይችላል": 5479,
      "ጣራ": 5480,
      "ጽሑ": 5481,
      "እንዲከበር": 5482,
      "ተስማሙየ30": 5483,
      "ናይጄሪያ": 5484,
      "አያሌው": 5485,
      "አስፈትቶታል42ኛ": 5486,
      "ክተው": 5487,
      "ዋር": 5488,
      "በመጠ": 5489,
      "ሚያዚያ": 5490,
      "your": 5491,
      "ቀርቦ": 5492,
      "ውልድ": 5493,
      "ወስድ": 5494,
      "በዋናነት": 5495,
      "መገንባት": 5496,
      "ማቋቋ": 5497,
      "ረቃ": 5498,
      "በቱ": 5499,
      "በህግ": 5500,
      "ነቅ": 5501,
      "ናን": 5502,
      "ኪሳራ": 5503,
      "ወግዝ": 5504,
      "የዴሞክራሲ": 5505,
      "ደና": 5506,
      "ለማምጣት": 5507,
      "ያስረ": 5508,
      "ሁለቱን": 5509,
      "በሰሜኑ": 5510,
      "ችግኞች": 5511,
      "ባህላዊ": 5512,
      "አግኝ": 5513,
      "ማዕቀብ": 5514,
      "ሄድ": 5515,
      "ከመንግሥት": 5516,
      "ጓጓዝ": 5517,
      "የሚፈ": 5518,
      "በመግባት": 5519,
      "ገብነት": 5520,
      "bu": 5521,
      "ማቱ": 5522,
      "ሥላሴ": 5523,
      "የሚሰራ": 5524,
      "በአዲሱ": 5525,
      "ቦታው": 5526,
      "መዋላቸውን": 5527,
      "vers": 5528,
      "ማረጋገጫ": 5529,
      "መጽሐ": 5530,
      "ልጆ": 5531,
      "ዝድ": 5532,
      "ሰጥቷል": 5533,
      "አሻድ": 5534,
      "ነሱት": 5535,
      "ለዚህም": 5536,
      "ሽማግሌዎች": 5537,
      "ምባ": 5538,
      "ሲንቀሳቀሱ": 5539,
      "በሁለትዮሽ": 5540,
      "እውን": 5541,
      "ዒድ": 5542,
      "የሸኔ": 5543,
      "ገለጸው": 5544,
      "ምንዛሬ": 5545,
      "እያሳ": 5546,
      "ልቦ": 5547,
      "ማቆ": 5548,
      "የኤርትራ": 5549,
      "ዩና": 5550,
      "ይሰራ": 5551,
      "ባለስልጣኑ": 5552,
      "8ኛ": 5553,
      "ማሰልጠኛ": 5554,
      "በአየር": 5555,
      "ደቂቃ": 5556,
      "85": 5557,
      "ልደታ": 5558,
      "መስራ": 5559,
      "ቢራ": 5560,
      "ዴን": 5561,
      "ጸሐፊ": 5562,
      "ፍጹም": 5563,
      "የውሳኔ": 5564,
      "ኮርፖሬሽኑ": 5565,
      "ኮንፈረንስ": 5566,
      "ሬድዋን": 5567,
      "አንጻር": 5568,
      "አሻድሊ": 5569,
      "49": 5570,
      "ct": 5571,
      "ig": 5572,
      "ርማ": 5573,
      "ቅመ": 5574,
      "ቐለ": 5575,
      "ባሉት": 5576,
      "እየተሰጠ": 5577,
      "እንዳያ": 5578,
      "የሚያወጡ": 5579,
      "ሰርቪስ": 5580,
      "ወያዩ": 5581,
      "ቅዳሜ": 5582,
      "ስደ": 5583,
      "ፊን": 5584,
      "በማይ": 5585,
      "በሚቀጥ": 5586,
      "ላቀል": 5587,
      "ስላሴ": 5588,
      "ተወዳዳሪ": 5589,
      "ሴፍ": 5590,
      "ሹመ": 5591,
      "በምን": 5592,
      "ደል": 5593,
      "ጭፍጨ": 5594,
      "እንዲሰጡ": 5595,
      "ባለበት": 5596,
      "ማዕድ": 5597,
      "የኢድ": 5598,
      "ወንጀሎች": 5599,
      "ጀምረዋል": 5600,
      "መዋቅር": 5601,
      "መኮንኖች": 5602,
      "ለሆኑ": 5603,
      "ማሰባ": 5604,
      "ባቡር": 5605,
      "ታላቅ": 5606,
      "ከነገ": 5607,
      "የሁሉም": 5608,
      "ግስት": 5609,
      "ከተለው": 5610,
      "ናልድ": 5611,
      "ገራችን": 5612,
      "አስተዳደርና": 5613,
      "ግንባታው": 5614,
      "ምስክር": 5615,
      "መግባት": 5616,
      "የመሠረተ": 5617,
      "ዳይሬክተሩ": 5618,
      "መተግበሪያ": 5619,
      "ore": 5620,
      "ማሞ": 5621,
      "ማምረቻ": 5622,
      "ሲካሄድ": 5623,
      "ቀደው": 5624,
      "ኪራይ": 5625,
      "የአስ": 5626,
      "ብርሀ": 5627,
      "ዳንኤል": 5628,
      "መቀሌ": 5629,
      "በመቀናጀት": 5630,
      "ልማቶች": 5631,
      "ኮማንደር": 5632,
      "ተሞክሮ": 5633,
      "በሴቶች": 5634,
      "በግል": 5635,
      "በሳዑዲ": 5636,
      "ተጽ": 5637,
      "የባንኩ": 5638,
      "ያጋጠ": 5639,
      "የተውጣጡ": 5640,
      "አልፎ": 5641,
      "ችግሩን": 5642,
      "ጉባኤውን": 5643,
      "በመስከረም": 5644,
      "የባህልና": 5645,
      "ገለልተኛ": 5646,
      "ማቋቋም": 5647,
      "ታሳቢ": 5648,
      "ኢሬቻ": 5649,
      "ዋሚ": 5650,
      "የፕላን": 5651,
      "በአዋ": 5652,
      "በመደገፍ": 5653,
      "ተፈረመ": 5654,
      "ቅርብ": 5655,
      "ምርጫው": 5656,
      "ጉዳዩን": 5657,
      "መጠለያ": 5658,
      "ኢብራሂም": 5659,
      "ዳይሬክቶሬት": 5660,
      "43": 5661,
      "የጉ": 5662,
      "የጭነት": 5663,
      "ዲሲ": 5664,
      "ፋጣኝ": 5665,
      "የሚች": 5666,
      "የሚሆነው": 5667,
      "የሚሰሩ": 5668,
      "ለትግራይ": 5669,
      "ine": 5670,
      "ይታወ": 5671,
      "ከበረው": 5672,
      "ጀግኖች": 5673,
      "ስታዲየም": 5674,
      "ሳሰ": 5675,
      "በሱ": 5676,
      "ዕቅ": 5677,
      "የማህበረሰብ": 5678,
      "ከተማና": 5679,
      "ለውጡ": 5680,
      "የሀገርን": 5681,
      "ኩባንያው": 5682,
      "ወያየት": 5683,
      "አውሮፕላ": 5684,
      "ብርቱካን": 5685,
      "በመሆናቸው": 5686,
      "እንደገና": 5687,
      "ለማካሄድ": 5688,
      "በዓሉን": 5689,
      "ሸባብ": 5690,
      "በቡ": 5691,
      "ቦራ": 5692,
      "ኮቪድ": 5693,
      "የደኅንነት": 5694,
      "ወሰደው": 5695,
      "ባሳት": 5696,
      "የእንስሳት": 5697,
      "ጉልህ": 5698,
      "ንዛኒያ": 5699,
      "አጠቃቀም": 5700,
      "ላለው": 5701,
      "መቅረ": 5702,
      "ሽጉ": 5703,
      "ያቀረበ": 5704,
      "በመል": 5705,
      "ክትባ": 5706,
      "ደምሰስ": 5707,
      "መግባቱን": 5708,
      "can": 5709,
      "ሶዶ": 5710,
      "አወል": 5711,
      "ከአውሮፓ": 5712,
      "ዕው": 5713,
      "የማህበራዊ": 5714,
      "ዶናልድ": 5715,
      "ጅን": 5716,
      "ፁዕ": 5717,
      "ፈላጊ": 5718,
      "ተካት": 5719,
      "4ኛ": 5720,
      "67": 5721,
      "ለአገልግሎት": 5722,
      "ሽኝት": 5723,
      "ክብረ": 5724,
      "ፋቸው": 5725,
      "የሚጠበቅ": 5726,
      "እንዲገቡ": 5727,
      "ከተሰ": 5728,
      "ብረው": 5729,
      "ኤፍቢሲ": 5730,
      "ሙሉጌታ": 5731,
      "አድማ": 5732,
      "በሐረሪ": 5733,
      "የሀገሪቱን": 5734,
      "ivers": 5735,
      "ቀላል": 5736,
      "ቤል": 5737,
      "ችበት": 5738,
      "አበ": 5739,
      "አድን": 5740,
      "አበራ": 5741,
      "ከዛሬ": 5742,
      "ኪነ": 5743,
      "ካሉ": 5744,
      "የሚሰጡ": 5745,
      "ህልፈት": 5746,
      "በነገው": 5747,
      "ምድ": 5748,
      "ኢሰ": 5749,
      "እሳ": 5750,
      "ዲሪ": 5751,
      "የኢትዮጵያና": 5752,
      "ከ100": 5753,
      "የህልውና": 5754,
      "ማርሻል": 5755,
      "ከንቲባዋ": 5756,
      "ቀረቡት": 5757,
      "ዳያስፖራው": 5758,
      "ፊልድ": 5759,
      "ol": 5760,
      "ማደ": 5761,
      "ቃቸውን": 5762,
      "ያው": 5763,
      "ፈፅ": 5764,
      "ጠባቂ": 5765,
      "ግዴታ": 5766,
      "ቀቅ": 5767,
      "ከሱዳን": 5768,
      "ዑመር": 5769,
      "ዲኤታ": 5770,
      "አንቶኒ": 5771,
      "አጋርነት": 5772,
      "ፎካካሪ": 5773,
      "በሙስና": 5774,
      "ከ200": 5775,
      "ግዢ": 5776,
      "ፖስት": 5777,
      "ወገኖችን": 5778,
      "በጅግጅጋ": 5779,
      "ታገሰ": 5780,
      "ይታወቃል": 5781,
      "የተገነባ": 5782,
      "የሚንቀሳቀሱ": 5783,
      "ሰራሽ": 5784,
      "ተገን": 5785,
      "ታቅዶ": 5786,
      "ይቀጥላል": 5787,
      "ሰውን": 5788,
      "የቱ": 5789,
      "።‹‹": 5790,
      "ከተባበሩት": 5791,
      "im": 5792,
      "ላክ": 5793,
      "ሴክ": 5794,
      "ቀረት": 5795,
      "ቁን": 5796,
      "ተክ": 5797,
      "ጥራ": 5798,
      "ፐር": 5799,
      "እንደሚሰጥ": 5800,
      "ርዕስ": 5801,
      "ባለሥልጣኑ": 5802,
      "ቻለው": 5803,
      "የዜጎችን": 5804,
      "ጀው": 5805,
      "ምክክሩ": 5806,
      "መርሀ": 5807,
      "በሚካሄደው": 5808,
      "ሙስሊ": 5809,
      "የገጠ": 5810,
      "ሚር": 5811,
      "ሲን": 5812,
      "ባጭ": 5813,
      "ተነስ": 5814,
      "እያንዳን": 5815,
      "ኮማንድ": 5816,
      "ለማከናወን": 5817,
      "ብርጋዴ": 5818,
      "that": 5819,
      "በኮቪድ": 5820,
      "የተከሰተው": 5821,
      "ዘዋወር": 5822,
      "በተከሰተው": 5823,
      "ሌዳሞ": 5824,
      "ጭፍጨፋ": 5825,
      "ርቀት": 5826,
      "ተመልክ": 5827,
      "አካሄዱ": 5828,
      "በአራት": 5829,
      "ገለግሉ": 5830,
      "አባተ": 5831,
      "ችግኞችን": 5832,
      "ባለስልጣናት": 5833,
      "ሚሊሻ": 5834,
      "Reached": 5835,
      "99": 5836,
      "ማዋ": 5837,
      "ሥፍራ": 5838,
      "ሪቷ": 5839,
      "ከ30": 5840,
      "ካቤ": 5841,
      "ያዥ": 5842,
      "ጋዝ": 5843,
      "በተካሄደ": 5844,
      "ማስታ": 5845,
      "ዘመናት": 5846,
      "ከሰቱ": 5847,
      "አደጋዎች": 5848,
      "ከናወነው": 5849,
      "አስረክ": 5850,
      "አለመግባ": 5851,
      "በስልክ": 5852,
      "ትምህር": 5853,
      "ችና": 5854,
      "ግሽ": 5855,
      "ፈቀደ": 5856,
      "የአት": 5857,
      "በአቶ": 5858,
      "ጉዳዮችን": 5859,
      "አካታች": 5860,
      "መድሃ": 5861,
      "ካሄደውን": 5862,
      "ኃላፊው": 5863,
      "ሽከርካሪዎች": 5864,
      "ተሳትፈዋል": 5865,
      "አሸባሪውን": 5866,
      "ፍትሐዊ": 5867,
      "ይደረጋል": 5868,
      "der": 5869,
      "ow": 5870,
      "መቱ": 5871,
      "ነቶችን": 5872,
      "ፅን": 5873,
      "ፑቲን": 5874,
      "እንደገለፁት": 5875,
      "በቀን": 5876,
      "የማኅ": 5877,
      "ቅርስ": 5878,
      "ግምታዊ": 5879,
      "በነፃ": 5880,
      "ቀጣና": 5881,
      "ተመስገን": 5882,
      "በከ": 5883,
      "እቃ": 5884,
      "ኦፕሬ": 5885,
      "የፀ": 5886,
      "አሳለፈ": 5887,
      "ቀጠናዊ": 5888,
      "ዝግጅቶች": 5889,
      "ቸርነት": 5890,
      "አድራጎት": 5891,
      "ሞገስ": 5892,
      "ርቶ": 5893,
      "ቃጠ": 5894,
      "ንረት": 5895,
      "ወላ": 5896,
      "ሲሉም": 5897,
      "አያያዝ": 5898,
      "የተደረገላቸው": 5899,
      "አስከባሪ": 5900,
      "ሳምንታት": 5901,
      "77": 5902,
      "ርቆስ": 5903,
      "ቃሊቲ": 5904,
      "በቤት": 5905,
      "ነብ": 5906,
      "ከጠቅላይ": 5907,
      "ዲግሪ": 5908,
      "ዳቸውን": 5909,
      "ፌዲሪ": 5910,
      "የአድዋ": 5911,
      "ለማክበር": 5912,
      "ባለሙሉ": 5913,
      "አንድነትን": 5914,
      "ችግሩ": 5915,
      "ጋዜጠኛ": 5916,
      "የሴቶችና": 5917,
      "ሂሩት": 5918,
      "ኦሞ": 5919,
      "ጓዙ": 5920,
      "ፋዊ": 5921,
      "ለማፍረስ": 5922,
      "ደርሷል": 5923,
      "የተሰማቸውን": 5924,
      "ስያሜ": 5925,
      "ፋውንዴ": 5926,
      "ሃይማኖት": 5927,
      "ለሙሉ": 5928,
      "መመለስ": 5929,
      "ከ15": 5930,
      "ጠቃለያ": 5931,
      "ነታችንን": 5932,
      "የበኩሉን": 5933,
      "31": 5934,
      "በህዝብ": 5935,
      "የቴሌኮም": 5936,
      "የትኛውም": 5937,
      "የቆዩ": 5938,
      "መዝገቡ": 5939,
      "ስላለው": 5940,
      "ተሰጥቶ": 5941,
      "ትሪ": 5942,
      "ቻችንን": 5943,
      "ኬት": 5944,
      "የፍትሕ": 5945,
      "መሰራ": 5946,
      "ማስፋፊያ": 5947,
      "ስቴት": 5948,
      "ለማስፈን": 5949,
      "46": 5950,
      "በሶማሊያ": 5951,
      "ነዉ": 5952,
      "ከኦሮሚያ": 5953,
      "የገለፁት": 5954,
      "ጋቢ": 5955,
      "ጥቂት": 5956,
      "ፈኛ": 5957,
      "የሚቀ": 5958,
      "በማሰብ": 5959,
      "አስታውሰው": 5960,
      "በሩሲያ": 5961,
      "ቡድኑን": 5962,
      "ግጭቶች": 5963,
      "አስፈላጊው": 5964,
      "ሻለቃ": 5965,
      "ሊድ": 5966,
      "መገደ": 5967,
      "ሲኖ": 5968,
      "በውይይት": 5969,
      "በኢንዱስትሪ": 5970,
      "ቢያን": 5971,
      "ዘብ": 5972,
      "እየታ": 5973,
      "ከባበር": 5974,
      "ገልፀው": 5975,
      "በመላው": 5976,
      "የኅብረተሰብ": 5977,
      "ጎራባች": 5978,
      "du": 5979,
      "ለብ": 5980,
      "መግ": 5981,
      "ሩብ": 5982,
      "በሸ": 5983,
      "በስኬት": 5984,
      "ተጎጂ": 5985,
      "አጽ": 5986,
      "ኢጋድ": 5987,
      "ከ50": 5988,
      "የበይነ": 5989,
      "የተመረ": 5990,
      "የተከፈ": 5991,
      "አባላቱ": 5992,
      "2ኛው": 5993,
      "ፌዴራ": 5994,
      "ድምፃ": 5995,
      "ክብካቤ": 5996,
      "ኦዲተር": 5997,
      "ማሰባሰቢያ": 5998,
      "ሐረር": 5999,
      "ቁሞ": 6000,
      "በእስር": 6001,
      "እህ": 6002,
      "ኮል": 6003,
      "ዩን": 6004,
      "የአመራ": 6005,
      "ለመጠበቅ": 6006,
      "ገልገል": 6007,
      "ብረታ": 6008,
      "ሕዝበ": 6009,
      "መቻቸ": 6010,
      "አጋጣሚ": 6011,
      "ለገሰ": 6012,
      "ፋይዳ": 6013,
      "አመልክተዋል": 6014,
      "ልውውጥ": 6015,
      "ሒደ": 6016,
      "ማራት": 6017,
      "ሳቦች": 6018,
      "በሦስት": 6019,
      "ባችን": 6020,
      "ንፁ": 6021,
      "ኘት": 6022,
      "ጥሬ": 6023,
      "በመያዝ": 6024,
      "መልእ": 6025,
      "ዘርላንድ": 6026,
      "ማራቶን": 6027,
      "አብደላ": 6028,
      "ተያያዥ": 6029,
      "ደካማ": 6030,
      "ication": 6031,
      "በአውሮፓ": 6032,
      "ዜግ": 6033,
      "ጆታ": 6034,
      "እንዲኖር": 6035,
      "ለመክ": 6036,
      "ለመመከት": 6037,
      "out": 6038,
      "በሰጠው": 6039,
      "ቅስቀሳ": 6040,
      "በነበረ": 6041,
      "ቆጣጠ": 6042,
      "ሂደቱ": 6043,
      "የሚቆጠሩ": 6044,
      "ይሰራል": 6045,
      "መመለ": 6046,
      "በ5": 6047,
      "ቢን": 6048,
      "እራ": 6049,
      "ኩሪ": 6050,
      "ድቋል": 6051,
      "ተገበር": 6052,
      "አለመሆኑን": 6053,
      "ኢንቨስትመን": 6054,
      "የፀጥታና": 6055,
      "ሁፍ": 6056,
      "ማያ": 6057,
      "ቀመጠ": 6058,
      "ውሎ": 6059,
      "ማስጠን": 6060,
      "የሚያወጣ": 6061,
      "ልዩነት": 6062,
      "ረዳል": 6063,
      "መወዝ": 6064,
      "ጀግናው": 6065,
      "አኳያ": 6066,
      "ሐንስ": 6067,
      "ሜጋ": 6068,
      "ርስቱ": 6069,
      "እጃ": 6070,
      "ዴፓ": 6071,
      "ድግ": 6072,
      "እንዲመለሱ": 6073,
      "በመክ": 6074,
      "ንትናው": 6075,
      "ዎችንና": 6076,
      "የህወሃት": 6077,
      "ቀሳቀስ": 6078,
      "ምፒክ": 6079,
      "ምልክት": 6080,
      "ለተሰ": 6081,
      "ለኢዜአ": 6082,
      "ማም": 6083,
      "በ10": 6084,
      "ጅመንት": 6085,
      "ግቢ": 6086,
      "ጥፍ": 6087,
      "እንዲታ": 6088,
      "መቀጠል": 6089,
      "ወሓትን": 6090,
      "የከተማው": 6091,
      "በደሴ": 6092,
      "ወልዲያ": 6093,
      "የቀረበው": 6094,
      "ታኅሳስ": 6095,
      "ህንፃ": 6096,
      "ተመልሰዋል": 6097,
      "ለአዲስ": 6098,
      "ሊካሄድ": 6099,
      "አፍ": 6100,
      "አበር": 6101,
      "የኩ": 6102,
      "የፖሊሲ": 6103,
      "ድያ": 6104,
      "ጫን": 6105,
      "ፍፁም": 6106,
      "ያለፈ": 6107,
      "ጠናክር": 6108,
      "ጠቀሜ": 6109,
      "ስብሰባውን": 6110,
      "የባቡር": 6111,
      "ኢዜማ": 6112,
      "ከነማ": 6113,
      "መዘጋጀቱን": 6114,
      "42": 6115,
      "ሕፃናት": 6116,
      "ሣይ": 6117,
      "በቁ": 6118,
      "በዳ": 6119,
      "እስልምና": 6120,
      "ኬሚ": 6121,
      "ውለው": 6122,
      "የሶ": 6123,
      "የፓርላማ": 6124,
      "ጥይ": 6125,
      "አገልግሎትን": 6126,
      "አዋሽ": 6127,
      "ዋንዳ": 6128,
      "ማድረጉ": 6129,
      "ስንቅ": 6130,
      "በነበራቸው": 6131,
      "ውይይቱ": 6132,
      "ሮፕላን": 6133,
      "በዛ": 6134,
      "ኡጁ": 6135,
      "ይኖር": 6136,
      "ጨባጭ": 6137,
      "እንቅ": 6138,
      "መንስ": 6139,
      "ላኪ": 6140,
      "ማበረታቻ": 6141,
      "ምች": 6142,
      "ሸት": 6143,
      "ቀጥታ": 6144,
      "አጸደቀ": 6145,
      "ኸር": 6146,
      "ይግባ": 6147,
      "ዮሐንስ": 6148,
      "ድና": 6149,
      "ጂን": 6150,
      "ፌል": 6151,
      "አስፍ": 6152,
      "እየተገነባ": 6153,
      "ዘርጋት": 6154,
      "ከታተሉ": 6155,
      "ዲፕሎማሲያዊ": 6156,
      "ተዋህ": 6157,
      "በተከሰተ": 6158,
      "78": 6159,
      "መደበ": 6160,
      "በቁርጠኝነት": 6161,
      "አወ": 6162,
      "አመላክ": 6163,
      "ዋሪ": 6164,
      "የፈፀ": 6165,
      "አልሚ": 6166,
      "ተጠናቋል": 6167,
      "ያደርጋል": 6168,
      "go": 6169,
      "ron": 6170,
      "ለጋ": 6171,
      "ልበስ": 6172,
      "ቆት": 6173,
      "ኒክስ": 6174,
      "ክሮች": 6175,
      "ዕዳ": 6176,
      "ጀማል": 6177,
      "በመውሰድ": 6178,
      "ደርሶ": 6179,
      "ገልገ": 6180,
      "ክርክር": 6181,
      "በማስመልከት": 6182,
      "ማለፉን": 6183,
      "በወላይታ": 6184,
      "ሞድ": 6185,
      "በከፈ": 6186,
      "በደረሰው": 6187,
      "የሁለቱን": 6188,
      "ፍራት": 6189,
      "የሚካሄደው": 6190,
      "እንዲፈቱ": 6191,
      "የሚያሳይ": 6192,
      "የኮሙ": 6193,
      "የጎርፍ": 6194,
      "እኩይ": 6195,
      "ቡል": 6196,
      "የክስ": 6197,
      "የክፍያ": 6198,
      "ጻቸውን": 6199,
      "የተጋ": 6200,
      "ከተል": 6201,
      "ለመትከል": 6202,
      "ውስጥና": 6203,
      "ለሚሆኑ": 6204,
      "ካሂድ": 6205,
      "የመክፈቻ": 6206,
      "In": 6207,
      "ሥጋ": 6208,
      "ረጠ": 6209,
      "በስራ": 6210,
      "በዘንድሮው": 6211,
      "ጃም": 6212,
      "ገጥ": 6213,
      "ፅዳት": 6214,
      "አስመ": 6215,
      "ለማልማት": 6216,
      "በመቃወም": 6217,
      "የመማር": 6218,
      "በቀረ": 6219,
      "ግንባታና": 6220,
      "ከፈረን": 6221,
      "ሥርዓተ": 6222,
      "በድምቀት": 6223,
      "ክሌር": 6224,
      "ረፍ": 6225,
      "ራፌል": 6226,
      "በዱ": 6227,
      "ውደ": 6228,
      "የድንበር": 6229,
      "ኢንስፔ": 6230,
      "ተፈቀደ": 6231,
      "አብዛ": 6232,
      "ላለች": 6233,
      "መድረሱ": 6234,
      "የተሰጠው": 6235,
      "ወስዱ": 6236,
      "በምግብ": 6237,
      "ኢንተርኔት": 6238,
      "የፊታችን": 6239,
      "ራጌ": 6240,
      "ሮቢ": 6241,
      "ኤግዚ": 6242,
      "ከሆኑ": 6243,
      "ዘና": 6244,
      "የአስተዳደር": 6245,
      "ጋቢት": 6246,
      "እናቶች": 6247,
      "ላይት": 6248,
      "መርዳ": 6249,
      "አንደ": 6250,
      "ኃላፊነቱ": 6251,
      "ተቋማትና": 6252,
      "ተነግ": 6253,
      "አርብቶ": 6254,
      "በማስገባት": 6255,
      "በታላቁ": 6256,
      "እንደምታ": 6257,
      "የገጠር": 6258,
      "ወዳጅነት": 6259,
      "መድኃኒት": 6260,
      "የአሸባሪ": 6261,
      "መያዛቸውን": 6262,
      "ፋውንዴሽን": 6263,
      "ስድ": 6264,
      "ታዳጊ": 6265,
      "ኡሞድ": 6266,
      "ደጀን": 6267,
      "ገለገ": 6268,
      "የመራጮች": 6269,
      "የጥምቀት": 6270,
      "መስተዳድሮች": 6271,
      "ዲፕሎማቶች": 6272,
      "የዓድዋ": 6273,
      "ተሻጋሪ": 6274,
      "መስኖና": 6275,
      "ፕሬዚዳንቱ": 6276,
      "ብሔረሰቦችና": 6277,
      "ኤክስፖርት": 6278,
      "47": 6279,
      "ለጠ": 6280,
      "ሩጫ": 6281,
      "ሸፍ": 6282,
      "ተዘጋጀ": 6283,
      "እኔ": 6284,
      "ወግ": 6285,
      "የረ": 6286,
      "አስተዳደሮች": 6287,
      "አደረገች": 6288,
      "አስመልክተው": 6289,
      "ልማቶችን": 6290,
      "ሃገራዊ": 6291,
      "የሌለው": 6292,
      "ጠነቀ": 6293,
      "ላስመዘገቡ": 6294,
      "በ3": 6295,
      "በግልጽ": 6296,
      "ኪም": 6297,
      "የሰዎች": 6298,
      "የኮሚሽኑ": 6299,
      "በመስራት": 6300,
      "ያሉትን": 6301,
      "አለበል": 6302,
      "ከፋፈል": 6303,
      "የጎዳና": 6304,
      "ቁሳቁሶች": 6305,
      "ጠይቅ": 6306,
      "መፍታት": 6307,
      "የሞባይል": 6308,
      "ኤርፖርት": 6309,
      "መጻሕፍት": 6310,
      "ማስተካከያ": 6311,
      "ጽሑፍ": 6312,
      "መጀመሩ": 6313,
      "በሆነው": 6314,
      "የድል": 6315,
      "የተከናወኑ": 6316,
      "ልማትን": 6317,
      "ተቀዳሚ": 6318,
      "ኡጁሉ": 6319,
      "መቆጣጠር": 6320,
      "ውዝ": 6321,
      "የሁለት": 6322,
      "የድርጅቱ": 6323,
      "የፍትህ": 6324,
      "ፋሲል": 6325,
      "የሚለውን": 6326,
      "እንደሚጠበቅ": 6327,
      "አንስቶ": 6328,
      "ተቋማዊ": 6329,
      "አገልግሎቶችን": 6330,
      "እንዳሉ": 6331,
      "ወንጀለ": 6332,
      "የስነ": 6333,
      "መስጠቱን": 6334,
      "ምርታማነትን": 6335,
      "ኢንተርፕራይዞች": 6336,
      "ማስጠንቀቂያ": 6337,
      "ኬሚካል": 6338,
      "ለቆ": 6339,
      "መባ": 6340,
      "ሚዲ": 6341,
      "በጥናት": 6342,
      "ቤቱን": 6343,
      "ኖስ": 6344,
      "የገባ": 6345,
      "ግንነት": 6346,
      "ጠናከረ": 6347,
      "ሥራውን": 6348,
      "ቀንን": 6349,
      "ረጋጋ": 6350,
      "ብራዚ": 6351,
      "በህወሓት": 6352,
      "ሲም": 6353,
      "በዙ": 6354,
      "በግንባር": 6355,
      "ፈጥሮ": 6356,
      "መስመ": 6357,
      "ናትና": 6358,
      "ይልማ": 6359,
      "ወጣቶችን": 6360,
      "ማግኘቱን": 6361,
      "ገብተው": 6362,
      "የታሪክ": 6363,
      "ትክክለኛ": 6364,
      "ግለሰቦችን": 6365,
      "በየዓመቱ": 6366,
      "ህገወጥ": 6367,
      "መናገራቸውን": 6368,
      "ፈጽሙ": 6369,
      "አደረጃጀ": 6370,
      "ረቱ": 6371,
      "አቻቸው": 6372,
      "የእር": 6373,
      "የጃፓን": 6374,
      "የተካሄደው": 6375,
      "መርቀው": 6376,
      "አስተሳ": 6377,
      "በኢትዮጵያና": 6378,
      "ክፍተ": 6379,
      "ቀረጥ": 6380,
      "በህዳሴ": 6381,
      "ጹሃን": 6382,
      "አራተኛ": 6383,
      "ይርዳ": 6384,
      "በአምስት": 6385,
      "መምጣቱን": 6386,
      "ቴዎድሮስ": 6387,
      "spe": 6388,
      "ለመሆን": 6389,
      "ሲደርሱ": 6390,
      "ቀመጥ": 6391,
      "ዐሻ": 6392,
      "​​": 6393,
      "ቤትና": 6394,
      "ተወሰ": 6395,
      "አስተዳደ": 6396,
      "የሰጠ": 6397,
      "ብሄረ": 6398,
      "የተመራው": 6399,
      "የሚያደርጉትን": 6400,
      "ተሳታፊዎች": 6401,
      "we": 6402,
      "ሎቹ": 6403,
      "ቶሪያ": 6404,
      "ዋቂ": 6405,
      "የሚደ": 6406,
      "ለማወቅ": 6407,
      "ኤሌክትሮኒክስ": 6408,
      "ድልድይ": 6409,
      "ተዋህዶ": 6410,
      "ሮን": 6411,
      "ሳኤ": 6412,
      "ተተ": 6413,
      "ዎን": 6414,
      "በትዕ": 6415,
      "ወቀው": 6416,
      "ንግድና": 6417,
      "ማስተዋ": 6418,
      "ስብሰባው": 6419,
      "ፍራፍሬ": 6420,
      "ላላኪ": 6421,
      "ፈራው": 6422,
      "ሀብታሙ": 6423,
      "የመጣውን": 6424,
      "አመላክተዋል": 6425,
      "ለሁለተኛ": 6426,
      "ልደ": 6427,
      "ሳኒ": 6428,
      "በከባድ": 6429,
      "ከባለድርሻ": 6430,
      "ወክ": 6431,
      "ዕና": 6432,
      "የች": 6433,
      "ይጠበቅ": 6434,
      "የኢፌዲሪ": 6435,
      "ከሚመለከታቸው": 6436,
      "የእንግሊዝ": 6437,
      "ይግባኝ": 6438,
      "ልቅ": 6439,
      "ሱም": 6440,
      "ተገባ": 6441,
      "እገዛ": 6442,
      "ከፌዴራል": 6443,
      "የበጋ": 6444,
      "የእርዳታ": 6445,
      "አስጀመሩ": 6446,
      "የሕገ": 6447,
      "በአንዳንድ": 6448,
      "አጀንዳዎች": 6449,
      "የሱስ": 6450,
      "አረጋግጠዋል": 6451,
      "የሚያስችለውን": 6452,
      "ተፈራርመዋል": 6453,
      "01": 6454,
      "ሸፈን": 6455,
      "በክልል": 6456,
      "ደኞች": 6457,
      "እንደሚሰሩ": 6458,
      "ለመወጣት": 6459,
      "የታክስ": 6460,
      "ከለኛው": 6461,
      "ተግበር": 6462,
      "በድምሩ": 6463,
      "አርቲስት": 6464,
      "ትራንስፎርሜሽን": 6465,
      "አሰልጣኝ": 6466,
      "ኢንተርፕራይዝ": 6467,
      "ማስተላለፊያ": 6468,
      "41": 6469,
      "ሊደረግ": 6470,
      "ምብ": 6471,
      "ሲባል": 6472,
      "በብሔራዊ": 6473,
      "በድል": 6474,
      "ንዋ": 6475,
      "ከሩሲያ": 6476,
      "ጨፌ": 6477,
      "የተጀመሩ": 6478,
      "በመለየት": 6479,
      "ከትግራይ": 6480,
      "ሂደዋል": 6481,
      "ህመም": 6482,
      "መዳ": 6483,
      "ቢል": 6484,
      "አና": 6485,
      "ኦዲት": 6486,
      "ከማስ": 6487,
      "የመሰረት": 6488,
      "ጎጃም": 6489,
      "ጣሰው": 6490,
      "የአይነት": 6491,
      "ደረቅ": 6492,
      "በመጥ": 6493,
      "የመጡ": 6494,
      "አንስተው": 6495,
      "የሚያወግዝ": 6496,
      "ዝናሽ": 6497,
      "ነጋሽ": 6498,
      "ally": 6499,
      "የስፖርት": 6500,
      "መታቀ": 6501,
      "መታሰቢያ": 6502,
      "ፀጋዬ": 6503,
      "ላደረጉ": 6504,
      "ራጭ": 6505,
      "ሮኮ": 6506,
      "በገ": 6507,
      "በስተ": 6508,
      "ብክ": 6509,
      "ዚራ": 6510,
      "ስተካ": 6511,
      "ስተጓ": 6512,
      "በማዘጋጀት": 6513,
      "ለሚገኘው": 6514,
      "አደጋው": 6515,
      "የአሜሪካን": 6516,
      "የአሜሪካው": 6517,
      "የሚሆኑት": 6518,
      "አድርገውላቸዋል": 6519,
      "በማሳደግ": 6520,
      "ተጫዋ": 6521,
      "ብርጋዴር": 6522,
      "800": 6523,
      "ሌን": 6524,
      "በጉብኝ": 6525,
      "ብስ": 6526,
      "ብፁዕ": 6527,
      "ዛቢ": 6528,
      "ጎች": 6529,
      "ለማዘመን": 6530,
      "ገልጋ": 6531,
      "ስማን": 6532,
      "ሚኒስቴርና": 6533,
      "ረጋጋት": 6534,
      "የስኳር": 6535,
      "ባህልና": 6536,
      "ጌታሁን": 6537,
      "የአገሪቱን": 6538,
      "ለሁሉም": 6539,
      "ቃለ": 6540,
      "በሜ": 6541,
      "በዘ": 6542,
      "በዓመት": 6543,
      "በሲዳማ": 6544,
      "ባሕር": 6545,
      "ስራው": 6546,
      "ትርጉም": 6547,
      "ወደፊት": 6548,
      "አልባ": 6549,
      "ችላቸውን": 6550,
      "ወለድ": 6551,
      "ሮሎጂ": 6552,
      "ካስ": 6553,
      "ኮንግ": 6554,
      "ዋስ": 6555,
      "የሳይንስና": 6556,
      "ጂንግ": 6557,
      "መለወጫ": 6558,
      "አምባሳደሩ": 6559,
      "ደንበ": 6560,
      "ስምምነቱን": 6561,
      "የሚያስፈል": 6562,
      "ስለሆነ": 6563,
      "ምርትና": 6564,
      "የውሃና": 6565,
      "የተገለጸው": 6566,
      "የመልሶ": 6567,
      "ዜግነት": 6568,
      "መርዳሳ": 6569,
      "መኔ": 6570,
      "ሲሳይ": 6571,
      "በአስቸጋሪ": 6572,
      "ነሰ": 6573,
      "ኑር": 6574,
      "ወድ": 6575,
      "የፍርድ": 6576,
      "ያነሱት": 6577,
      "ዮቹ": 6578,
      "ጣሊያን": 6579,
      "የመቀ": 6580,
      "መውሰድ": 6581,
      "እውቀት": 6582,
      "ir": 6583,
      "ላፍቶ": 6584,
      "ብሯል": 6585,
      "ዥም": 6586,
      "ጎዳና": 6587,
      "መንደር": 6588,
      "ምክረ": 6589,
      "ወሰኑ": 6590,
      "ለታላቁ": 6591,
      "ተሾሙ": 6592,
      "88": 6593,
      "ሳተፈ": 6594,
      "ኬላ": 6595,
      "የቱርክ": 6596,
      "ገዙ": 6597,
      "ጎዳ": 6598,
      "የተረ": 6599,
      "መሰጠ": 6600,
      "ጠናው": 6601,
      "አልባሳት": 6602,
      "መንግሥትና": 6603,
      "ስምሪት": 6604,
      "አለሙ": 6605,
      "ከሚገኘው": 6606,
      "መኖራቸውን": 6607,
      "አብዱላ": 6608,
      "ተነግሯል": 6609,
      "ma": 6610,
      "us": 6611,
      "ሐሰተኛ": 6612,
      "ኮሮና": 6613,
      "የመፍት": 6614,
      "ተከፈተ": 6615,
      "እየሰሩ": 6616,
      "ደረሰበት": 6617,
      "እንቅስቃሴዎች": 6618,
      "ሠላምና": 6619,
      "የተከሰተውን": 6620,
      "የአንድነት": 6621,
      "ተሽከርካሪዎችን": 6622,
      "!!": 6623,
      "66": 6624,
      "ለ1": 6625,
      "ለጡ": 6626,
      "መሬ": 6627,
      "መፅ": 6628,
      "ሙና": 6629,
      "በለው": 6630,
      "ችሎ": 6631,
      "ናቀ": 6632,
      "ከ9": 6633,
      "የተጀመረውን": 6634,
      "ያለበት": 6635,
      "ሉትን": 6636,
      "እስከሚ": 6637,
      "ከታተል": 6638,
      "ከፋና": 6639,
      "የኦነግ": 6640,
      "ሃይማኖታዊ": 6641,
      "ዐሻራ": 6642,
      "ሁድ": 6643,
      "ለሌሎች": 6644,
      "ማኑ": 6645,
      "ተሮች": 6646,
      "አከባቢ": 6647,
      "ኢሳ": 6648,
      "ኩራ": 6649,
      "የ2013": 6650,
      "ጮችን": 6651,
      "ፍስ": 6652,
      "ፍጣ": 6653,
      "እንዲደርስ": 6654,
      "ቤትን": 6655,
      "ሲያደርግ": 6656,
      "የጠቆሙት": 6657,
      "ከፋፈያ": 6658,
      "ሕጻናት": 6659,
      "በኢትዮ": 6660,
      "የሆ": 6661,
      "ጻሜ": 6662,
      "አስጠነቀ": 6663,
      "የአዋ": 6664,
      "በተቋ": 6665,
      "ለመላው": 6666,
      "እየተወሰደ": 6667,
      "አልፈጥር": 6668,
      "ወረቀት": 6669,
      "ወርክ": 6670,
      "ያልሆነ": 6671,
      "ኃይሌ": 6672,
      "ደጋፊ": 6673,
      "በቀጣይም": 6674,
      "እንድታ": 6675,
      "አላችሁ": 6676,
      "ጨርቃ": 6677,
      "ሙዚቃ": 6678,
      "አለማየሁ": 6679,
      "መወያየ": 6680,
      "ሽፈራው": 6681,
      "ጥራር": 6682,
      "የሚስተዋሉ": 6683,
      "ክልና": 6684,
      "መሰማራት": 6685,
      "እስኪ": 6686,
      "አባይ": 6687,
      "መንግስትና": 6688,
      "መውሰ": 6689,
      "ጠናቀው": 6690,
      "የቁሳቁ": 6691,
      "ጠብቅ": 6692,
      "የክብር": 6693,
      "ጨዋታዎች": 6694,
      "ብዛት": 6695,
      "ቦራቶሪ": 6696,
      "ሚዲያዎች": 6697,
      "መደገፍ": 6698,
      "እል": 6699,
      "ይገኙ": 6700,
      "ፎቶ": 6701,
      "የሚደረጉ": 6702,
      "የሚውሉ": 6703,
      "ስትሪ": 6704,
      "እንደሚቻል": 6705,
      "የመው": 6706,
      "ንስላ": 6707,
      "አገልግሎቱ": 6708,
      "ere": 6709,
      "የሚያስችላቸውን": 6710,
      "ገብቷል": 6711,
      "ተጠቃሚዎች": 6712,
      "መዋዕለ": 6713,
      "atch": 6714,
      "ቸዉን": 6715,
      "ሀዘን": 6716,
      "ሊበላ": 6717,
      "መቃ": 6718,
      "ካሔ": 6719,
      "ጉር": 6720,
      "አንዳር": 6721,
      "ገንባ": 6722,
      "በመቀበል": 6723,
      "ቆይቷል": 6724,
      "ical": 6725,
      "ራሳቸውን": 6726,
      "ሳትና": 6727,
      "ተዘዋ": 6728,
      "ዎቻቸው": 6729,
      "ይሻ": 6730,
      "አስር": 6731,
      "ሥራው": 6732,
      "አካሂደዋል": 6733,
      "ህዝብን": 6734,
      "ድገትና": 6735,
      "መከላከልና": 6736,
      "የበላይነትን": 6737,
      "ሽዴ": 6738,
      "ተቆጣ": 6739,
      "ተመረቁ": 6740,
      "መልቀቂያ": 6741,
      "ማርቆስ": 6742,
      "አመራሩ": 6743,
      "አጠናክረው": 6744,
      "ጠይቋል": 6745,
      "መገኘታቸውን": 6746,
      "መሸጫ": 6747,
      "ሸጋገር": 6748,
      "ተጽዕኖ": 6749,
      "iversity": 6750,
      "ኢታማዦር": 6751,
      "ለማምረት": 6752,
      "ለመጠቀም": 6753,
      "any": 6754,
      "እየተሳተፉ": 6755,
      "አልጀ": 6756,
      "ከ18": 6757,
      "ለይቶ": 6758,
      "መቻሉ": 6759,
      "ወንድማማች": 6760,
      "ፈለገው": 6761,
      "የበኩላቸውን": 6762,
      "አዘጋጅነት": 6763,
      "ማኔጅመንት": 6764,
      "ማቋቋሚያ": 6765,
      "ጠቀሜታ": 6766,
      "መሞ": 6767,
      "ረድ": 6768,
      "ሳሙኤል": 6769,
      "በፍርድ": 6770,
      "አዘ": 6771,
      "አሳይ": 6772,
      "ከአገር": 6773,
      "ያቀረበው": 6774,
      "ይኼ": 6775,
      "በመገንባት": 6776,
      "እየወሰደ": 6777,
      "ተቀና": 6778,
      "ተቀብሎ": 6779,
      "የማዕከላዊ": 6780,
      "የተሰኘው": 6781,
      "የቀረበውን": 6782,
      "ጥልቅ": 6783,
      "ተፋሰስ": 6784,
      "pre": 6785,
      "ምቷል": 6786,
      "ተጨባጭ": 6787,
      "እሸ": 6788,
      "ወቅዱስ": 6789,
      "ድጋፎች": 6790,
      "መንግሥትን": 6791,
      "እያከናወነ": 6792,
      "የምሥራቅ": 6793,
      "ደረጃው": 6794,
      "የባሕር": 6795,
      "በእነ": 6796,
      "አሉታዊ": 6797,
      "ብይን": 6798,
      "ናይሮቢ": 6799,
      "ምርታማነት": 6800,
      "የቆየውን": 6801,
      "watch": 6802,
      "ህንድ": 6803,
      "ለፌዴራል": 6804,
      "ሳኤል": 6805,
      "ሹራንስ": 6806,
      "ሾሙ": 6807,
      "ቀፉ": 6808,
      "ቀዳማዊት": 6809,
      "በግጭት": 6810,
      "ንጅ": 6811,
      "ኘው": 6812,
      "አፅ": 6813,
      "የለውም": 6814,
      "የገለጸው": 6815,
      "ደሪያ": 6816,
      "ጌዴ": 6817,
      "ጎርፍ": 6818,
      "ኢንጅ": 6819,
      "አገልግሎቱን": 6820,
      "የሚያግዝ": 6821,
      "መውደ": 6822,
      "250": 6823,
      "ርክክብ": 6824,
      "ኢንስቲትዩ": 6825,
      "የደረሰባቸውን": 6826,
      "ሃም": 6827,
      "ለጤና": 6828,
      "ለይፋዊ": 6829,
      "ማጠናቀቁን": 6830,
      "ባሪዎች": 6831,
      "የወጣው": 6832,
      "የደረሰው": 6833,
      "ይንግ": 6834,
      "ደመሰ": 6835,
      "የተዘጋጀው": 6836,
      "ከእነዚህ": 6837,
      "ተርስ": 6838,
      "ታደለ": 6839,
      "አካሂዷል": 6840,
      "ደራሽ": 6841,
      "ረጋገጡ": 6842,
      "ኢትዮጵያውያንን": 6843,
      "ካሳሁን": 6844,
      "የደብረ": 6845,
      "ተመራቂ": 6846,
      "ካለፈው": 6847,
      "የምስጋና": 6848,
      "ction": 6849,
      "ሀን": 6850,
      "ማቾች": 6851,
      "ምኞ": 6852,
      "ሰሚ": 6853,
      "ቄት": 6854,
      "በቱርክ": 6855,
      "በሀገራችን": 6856,
      "ቱና": 6857,
      "ትብ": 6858,
      "ኖቹ": 6859,
      "የውጪ": 6860,
      "ለተለያዩ": 6861,
      "በውይይታቸውም": 6862,
      "ha": 6863,
      "መገለ": 6864,
      "መቆጣጠ": 6865,
      "ማንነት": 6866,
      "በወንጀል": 6867,
      "ዑስ": 6868,
      "የግብፅ": 6869,
      "ዶሚኒ": 6870,
      "ጋምቤላ": 6871,
      "የሚደርስ": 6872,
      "ነውበ": 6873,
      "በባሕር": 6874,
      "ሀገረ": 6875,
      "ted": 6876,
      "ማህበረሰቡ": 6877,
      "ገባቸው": 6878,
      "ድጋፍና": 6879,
      "ወሰድ": 6880,
      "አብነት": 6881,
      "አንድነትና": 6882,
      "የምግብና": 6883,
      "በሀዋሳ": 6884,
      "የተወሰኑ": 6885,
      "የመጠጥ": 6886,
      "ዩናይት": 6887,
      "ለምክር": 6888,
      "ላከ": 6889,
      "ሳነ": 6890,
      "ቪክ": 6891,
      "ኢራን": 6892,
      "ወሱት": 6893,
      "ጨመር": 6894,
      "የሚሰጠው": 6895,
      "ለመቋቋም": 6896,
      "ገለፃ": 6897,
      "ተቋቋ": 6898,
      "አምባ": 6899,
      "ፈጸሚያ": 6900,
      "መኖሩን": 6901,
      "በብቃት": 6902,
      "ቤተሰቦ": 6903,
      "ሀላፊዎች": 6904,
      "በመላኩ": 6905,
      "በትናንትናው": 6906,
      "ጥብቅ": 6907,
      "whi": 6908,
      "አስፍረዋል": 6909,
      "ብራዚል": 6910,
      "አስተሳሰብ": 6911,
      "የቁሳቁስ": 6912,
      "Th": 6913,
      "ሃፊ": 6914,
      "ታና": 6915,
      "ኪስታን": 6916,
      "ካርድ": 6917,
      "የቱን": 6918,
      "የቴሌቪዥን": 6919,
      "የያዙ": 6920,
      "ይኖ": 6921,
      "ጆችን": 6922,
      "ጨምር": 6923,
      "ያስችላል": 6924,
      "ደራጁ": 6925,
      "በምረቃ": 6926,
      "ዓረብ": 6927,
      "ፈጸመውን": 6928,
      "በህገወጥ": 6929,
      "የደረሰውን": 6930,
      "ይዘዋል": 6931,
      "ልቦና": 6932,
      "መያዝ": 6933,
      "ረቱን": 6934,
      "በእጅ": 6935,
      "ባቀረቡት": 6936,
      "ኢኒ": 6937,
      "እሴ": 6938,
      "ዓለማ": 6939,
      "የሙያ": 6940,
      "ድሶ": 6941,
      "ፀመ": 6942,
      "ለማጠናቀቅ": 6943,
      "እንደሚጀምር": 6944,
      "ደርገውን": 6945,
      "ገድፍ": 6946,
      "ደግፉ": 6947,
      "ዝርፊያ": 6948,
      "መንገዶችን": 6949,
      "ኢሰመኮ": 6950,
      "ግሽበት": 6951,
      "ሙሳ": 6952,
      "ቀያቸው": 6953,
      "ተላላኪ": 6954,
      "ኮንትሮባንድ": 6955,
      "ወሩ": 6956,
      "ዘዴ": 6957,
      "ዲዛ": 6958,
      "ፈርት": 6959,
      "ሰራተኛ": 6960,
      "በቀድሞ": 6961,
      "እንዳይገ": 6962,
      "ለማስቻል": 6963,
      "አፍሪካን": 6964,
      "የኮር": 6965,
      "ተከስቶ": 6966,
      "ኛውንም": 6967,
      "ሀገራችንን": 6968,
      "ሃላፊነት": 6969,
      "የሚታወስ": 6970,
      "walta_infoአብራችሁን": 6971,
      "ሚንስትር": 6972,
      "ru": 6973,
      "መዛ": 6974,
      "መከናወ": 6975,
      "ተምሳ": 6976,
      "ከአማራ": 6977,
      "የሴ": 6978,
      "ድራ": 6979,
      "እንዲውል": 6980,
      "አበባና": 6981,
      "ዘጋጃ": 6982,
      "አባላትና": 6983,
      "ደበሌ": 6984,
      "አርሲ": 6985,
      "ህዝበ": 6986,
      "የእግር": 6987,
      "አዲሱን": 6988,
      "ዳረጉ": 6989,
      "ፈለጉ": 6990,
      "ጳጉሜን": 6991,
      "ታስቦ": 6992,
      "WALTATVEthዩቲዩብ": 6993,
      "መቀጠሉን": 6994,
      "መንፈስ": 6995,
      "የፕላንና": 6996,
      "በከፊል": 6997,
      "በትዕግስት": 6998,
      "ሆት": 6999,
      "መወጣት": 7000,
      "ሺዴ": 7001,
      "በምክር": 7002,
      "ከከተማ": 7003,
      "የባለ": 7004,
      "የሠላም": 7005,
      "ድኦ": 7006,
      "ገልጾ": 7007,
      "ሆነዋል": 7008,
      "ቢሮዎች": 7009,
      "ግንባታን": 7010,
      "ዘመኑ": 7011,
      "መጣጣኝ": 7012,
      "ተቀመጠ": 7013,
      "የእውቅና": 7014,
      "ክትትልና": 7015,
      "ላሚ": 7016,
      "ሻን": 7017,
      "ነድ": 7018,
      "ፍኖ": 7019,
      "የተፋ": 7020,
      "ከተለ": 7021,
      "በርበር": 7022,
      "መርህ": 7023,
      "የሚያስተ": 7024,
      "መቀነስ": 7025,
      "ውሳኔዎችን": 7026,
      "150": 7027,
      "በቅርበት": 7028,
      "ቀበሌዎች": 7029,
      "appl": 7030,
      "መግለጻቸውን": 7031,
      "ሙዚየም": 7032,
      "featuredቲዊተር": 7033,
      "ኢንስፔክተር": 7034,
      "ሆሳ": 7035,
      "ሊወጣ": 7036,
      "መጀመራ": 7037,
      "ሪን": 7038,
      "ሪነት": 7039,
      "ባላቸው": 7040,
      "ከአራት": 7041,
      "የከፋ": 7042,
      "ገጣ": 7043,
      "ጋራት": 7044,
      "ፊኔ": 7045,
      "ፊርማ": 7046,
      "እንዲገባ": 7047,
      "ለመታደግ": 7048,
      "እየሰጠ": 7049,
      "እያደረሰ": 7050,
      "ሁኔታን": 7051,
      "በየደረጃው": 7052,
      "ከነበረው": 7053,
      "ህግን": 7054,
      "ህቀት": 7055,
      "ምሥራቅ": 7056,
      "ረፋ": 7057,
      "ሰጣቸው": 7058,
      "ቂጤ": 7059,
      "በልማት": 7060,
      "አቪዬሽን": 7061,
      "ኢሚ": 7062,
      "እጩ": 7063,
      "ከፈል": 7064,
      "ከሁሉም": 7065,
      "ከ40": 7066,
      "ጎስ": 7067,
      "ጳጳ": 7068,
      "ሽንግ": 7069,
      "እየተሰሩ": 7070,
      "ድጋፎችን": 7071,
      "ተቋማቱ": 7072,
      "ማድረጋቸው": 7073,
      "መምከራ": 7074,
      "ግድብን": 7075,
      "ጠብቆ": 7076,
      "ጥቃቶች": 7077,
      "ደካሞች": 7078,
      "ጉድለት": 7079,
      "69": 7080,
      "ser": 7081,
      "ለመንግሥት": 7082,
      "ሊገነባ": 7083,
      "መኖር": 7084,
      "ሳው": 7085,
      "ተመሰረተ": 7086,
      "ታዋቂ": 7087,
      "አወጣ": 7088,
      "ዟል": 7089,
      "ያለን": 7090,
      "በተባሉ": 7091,
      "በተፈጠረው": 7092,
      "ማስፈጸሚያ": 7093,
      "መልካ": 7094,
      "ተከሉ": 7095,
      "ጎብኚ": 7096,
      "ቋቋሙ": 7097,
      "ኮንጎ": 7098,
      "ከፋዮች": 7099,
      "ወልቂጤ": 7100,
      "ምግብና": 7101,
      "ዳያስፖራዎች": 7102,
      "መምህር": 7103,
      "አብሮነት": 7104,
      "በሚቻልባቸው": 7105,
      "የጫኑ": 7106,
      "ማዋሉን": 7107,
      "ታያቸው": 7108,
      "አበረከተ": 7109,
      "ዲሞክራ": 7110,
      "ለትውልድ": 7111,
      "ገልጻ": 7112,
      "ተከብሯል": 7113,
      "ሰራው": 7114,
      "ታችንን": 7115,
      "የክላ": 7116,
      "ትራንስፖርትና": 7117,
      "ሌላው": 7118,
      "የፍል": 7119,
      "ምግባርና": 7120,
      "የበላይነት": 7121,
      "ተግዳሮቶች": 7122,
      "ሪታኒያ": 7123,
      "4ኛው": 7124,
      "ሕነግ": 7125,
      "ረዱ": 7126,
      "ቆጠራ": 7127,
      "በበጋ": 7128,
      "ተላል": 7129,
      "ታራሚ": 7130,
      "ዌይ": 7131,
      "ፋጠን": 7132,
      "የመካ": 7133,
      "ሰራጨት": 7134,
      "ግብሮች": 7135,
      "ሁኔታዎችን": 7136,
      "ree": 7137,
      "በአማራና": 7138,
      "ተጠቅሷል": 7139,
      "በጅቡቲ": 7140,
      "የኮንስትራክሽን": 7141,
      "መጽሐፍ": 7142,
      "ቃጠሎ": 7143,
      "ይገኙበታል": 7144,
      "ጌዴኦ": 7145,
      "ለባቸው": 7146,
      "ማሰባሰብ": 7147,
      "ሲደረግ": 7148,
      "የሚገል": 7149,
      "የአብሮ": 7150,
      "በሚጠራው": 7151,
      "ላለፈው": 7152,
      "የተሰማ": 7153,
      "ጀምሩ": 7154,
      "ሆቴሎች": 7155,
      "የግሉ": 7156,
      "ተጠርጣሪዎቹ": 7157,
      "ተመራማሪ": 7158,
      "ጨርቅ": 7159,
      "ህይወታቸው": 7160,
      "ምቢ": 7161,
      "በኃይል": 7162,
      "ኣዊ": 7163,
      "ከሐምሌ": 7164,
      "ዕፅ": 7165,
      "ጥቁር": 7166,
      "የተጠ": 7167,
      "የተመሰረተ": 7168,
      "የሚሠሩ": 7169,
      "ብርሆት": 7170,
      "ሪያል": 7171,
      "አንዷ": 7172,
      "አቀፋዊ": 7173,
      "ክፍተት": 7174,
      "አካባቢዎችን": 7175,
      "የሃገር": 7176,
      "edu": 7177,
      "ፕሪቶሪያ": 7178,
      "ሜዳሊያ": 7179,
      "ለአርሶ": 7180,
      "ስሜት": 7181,
      "ንዑስ": 7182,
      "አለን": 7183,
      "ወላይታ": 7184,
      "ዘረጋ": 7185,
      "የመን": 7186,
      "አስመር": 7187,
      "በማድረ": 7188,
      "በሚችሉ": 7189,
      "እንዳላት": 7190,
      "ተፈታ": 7191,
      "ጥናትና": 7192,
      "አፍሪካዊ": 7193,
      "የካቢኔ": 7194,
      "አስረከበ": 7195,
      "የሚኒስቴ": 7196,
      "ድሪስ": 7197,
      "እድሳት": 7198,
      "በቦረና": 7199,
      "ዩናይትድ": 7200,
      "5ኛ": 7201,
      "ላኩ": 7202,
      "ማዳን": 7203,
      "ሞኑ": 7204,
      "ኤንድ": 7205,
      "ከሦስት": 7206,
      "ዜማ": 7207,
      "የሜ": 7208,
      "የኒው": 7209,
      "ድሎ": 7210,
      "ፈነ": 7211,
      "በአረንጓዴ": 7212,
      "በመታ": 7213,
      "አዋጁን": 7214,
      "የሰጡ": 7215,
      "also": 7216,
      "አመራርና": 7217,
      "dent": 7218,
      "አቅጣጫዎች": 7219,
      "ግብዓቶች": 7220,
      "ኦፕሬሽን": 7221,
      "speci": 7222,
      "አንዳርጋቸው": 7223,
      "ላድ": 7224,
      "ረኞች": 7225,
      "ዓለሙ": 7226,
      "ዝመት": 7227,
      "የፓርቲ": 7228,
      "የዘመን": 7229,
      "የድርሻ": 7230,
      "ይጀመራ": 7231,
      "ጂኦ": 7232,
      "ግቦች": 7233,
      "የተመዘገበ": 7234,
      "አስቀድሞ": 7235,
      "ጉዳተኞች": 7236,
      "መንግስቴ": 7237,
      "ያስረዳል": 7238,
      "ሰብኣዊ": 7239,
      "አንጋ": 7240,
      "እየሰጡ": 7241,
      "rom": 7242,
      "እርምጃዎች": 7243,
      "ኢትዮጵያውያንና": 7244,
      "ያዘጋጀው": 7245,
      "ማቀነባ": 7246,
      "application": 7247,
      "68": 7248,
      "ራኒ": 7249,
      "ሲሰራ": 7250,
      "ባረ": 7251,
      "ቲም": 7252,
      "አመስ": 7253,
      "ካዊ": 7254,
      "ወነ": 7255,
      "የዘርፉ": 7256,
      "የጀርመን": 7257,
      "ፍሳሽ": 7258,
      "ant": 7259,
      "የንፁ": 7260,
      "መርምሮ": 7261,
      "የማያ": 7262,
      "አደንዛ": 7263,
      "ዛሬም": 7264,
      "ተሰማር": 7265,
      "ክለብ": 7266,
      "ሰንደቅ": 7267,
      "ንጉሴ": 7268,
      "ፈንታ": 7269,
      "መግባታቸውን": 7270,
      "ስርዓተ": 7271,
      "በጣም": 7272,
      "እያስመረቀ": 7273,
      "ቀጣይነት": 7274,
      "ሽንግተን": 7275,
      "አደንዛዥ": 7276,
      "ies": 7277,
      "nd": 7278,
      "ለገበያ": 7279,
      "ሯዊ": 7280,
      "ሲሲ": 7281,
      "ቀና": 7282,
      "ቀበል": 7283,
      "በኦ": 7284,
      "የውን": 7285,
      "የቢሮው": 7286,
      "ዲዮ": 7287,
      "እንክብካቤ": 7288,
      "ለመፈጸም": 7289,
      "ሲያደርጉ": 7290,
      "ምስጋ": 7291,
      "ግንኙነታቸውን": 7292,
      "ኤምባሲው": 7293,
      "በሐዋሳ": 7294,
      "ተቃዋሚ": 7295,
      "መገለጫ": 7296,
      "ለክልሉ": 7297,
      "ለዘላቂ": 7298,
      "ስጥ": 7299,
      "ቃዮች": 7300,
      "ትሮ": 7301,
      "ነሳት": 7302,
      "ከመንግስት": 7303,
      "የበለ": 7304,
      "ፖል": 7305,
      "አስጀመረ": 7306,
      "በተመድ": 7307,
      "በተያዘ": 7308,
      "ከፍታ": 7309,
      "ውስጥም": 7310,
      "መላለ": 7311,
      "ጀምበር": 7312,
      "በምት": 7313,
      "መጥን": 7314,
      "ነባራዊ": 7315,
      "በመስቀል": 7316,
      "ካተቱ": 7317,
      "ይርዳው": 7318,
      "ስድስተኛ": 7319,
      "ተምሳሌት": 7320,
      "62": 7321,
      "ሃሴ": 7322,
      "ሙላት": 7323,
      "ሥት": 7324,
      "ስሜ": 7325,
      "ስጋ": 7326,
      "ነቷን": 7327,
      "አሥ": 7328,
      "አካሄድ": 7329,
      "ኪዳን": 7330,
      "ያማ": 7331,
      "የሚደርሱ": 7332,
      "አስገን": 7333,
      "ለማገዝ": 7334,
      "የመመለስ": 7335,
      "ተከብራ": 7336,
      "መድህን": 7337,
      "cation": 7338,
      "እንዲያቀርቡ": 7339,
      "መድረኮች": 7340,
      "ወርቅነህ": 7341,
      "በስድስት": 7342,
      "መሥተዳ": 7343,
      "ሆኖም": 7344,
      "ባለቤትነት": 7345,
      "ምስጋኑ": 7346,
      "ple": 7347,
      "ስትዮሽ": 7348,
      "ቆላማ": 7349,
      "ነቃ": 7350,
      "ከቅርብ": 7351,
      "ዓባይ": 7352,
      "ዓቀፍ": 7353,
      "የሺ": 7354,
      "የቱሪ": 7355,
      "ደቀው": 7356,
      "ዳሪዎች": 7357,
      "ጣኔ": 7358,
      "ለመደምሰስ": 7359,
      "አንበሳ": 7360,
      "ጠናክሩ": 7361,
      "አውጥ": 7362,
      "ጥያቄዎችን": 7363,
      "በረታታ": 7364,
      "ኔትወርክ": 7365,
      "በመርሐ": 7366,
      "እውነተኛ": 7367,
      "እንዳስታወቀው": 7368,
      "መደረ": 7369,
      "ማከፋፈያ": 7370,
      "ቃይ": 7371,
      "ባደረገ": 7372,
      "ቲቭ": 7373,
      "ያኑ": 7374,
      "ዳኛ": 7375,
      "ከተሞችን": 7376,
      "ክልልን": 7377,
      "የትን": 7378,
      "ለማስወገድ": 7379,
      "ዳጅነት": 7380,
      "አድሃ": 7381,
      "በመስኖ": 7382,
      "ጃንጥራር": 7383,
      "እንቅፋት": 7384,
      "ለቅ": 7385,
      "ረማያ": 7386,
      "ቃለች": 7387,
      "በ2": 7388,
      "ታዛቢ": 7389,
      "የድምፅ": 7390,
      "ያወጣ": 7391,
      "ዮርክ": 7392,
      "ጣራት": 7393,
      "ፍር": 7394,
      "ፍሰ": 7395,
      "እንዲካሄድ": 7396,
      "ከፍሉ": 7397,
      "ሴቶችና": 7398,
      "ቀጥሏል": 7399,
      "ሽብርተኝነት": 7400,
      "ካምፕ": 7401,
      "ማሻሻል": 7402,
      "ነባር": 7403,
      "ፈጥሩ": 7404,
      "ላችንም": 7405,
      "ተከሰሱ": 7406,
      "ሴክሬታ": 7407,
      "አልጀዚራ": 7408,
      "ሙማን": 7409,
      "ሻም": 7410,
      "ቀኝ": 7411,
      "ቆር": 7412,
      "በ8": 7413,
      "በሬ": 7414,
      "ኖት": 7415,
      "ኢም": 7416,
      "ከሌ": 7417,
      "ኬኒያ": 7418,
      "ለመግዛት": 7419,
      "መንግስቱ": 7420,
      "የንብረት": 7421,
      "የሚገነባ": 7422,
      "መለካ": 7423,
      "ማሳካት": 7424,
      "የከተማና": 7425,
      "ለቀው": 7426,
      "የአውሮፕላን": 7427,
      "ይጀመራል": 7428,
      "ሕዳር": 7429,
      "ሲዮ": 7430,
      "በኢንቨስትመንት": 7431,
      "ባራ": 7432,
      "ትሩ": 7433,
      "ነሽ": 7434,
      "ኪዮ": 7435,
      "ዱቄት": 7436,
      "ዳዊት": 7437,
      "ጄኔ": 7438,
      "ጣው": 7439,
      "የአክ": 7440,
      "ለማዋል": 7441,
      "ማስረ": 7442,
      "ስርጭ": 7443,
      "አካባቢውን": 7444,
      "በራሱ": 7445,
      "የቻይናው": 7446,
      "ጠበቁ": 7447,
      "ድሮክ": 7448,
      "ስፔሻ": 7449,
      "ቢያንስ": 7450,
      "በመጥቀስ": 7451,
      "iz": 7452,
      "ust": 7453,
      "አዝ": 7454,
      "አኩሪ": 7455,
      "ይጀም": 7456,
      "ዶስ": 7457,
      "ጋታ": 7458,
      "ጦታ": 7459,
      "የሚመለከታቸው": 7460,
      "ስራውን": 7461,
      "መሰና": 7462,
      "ለመግባት": 7463,
      "ጠቅሶ": 7464,
      "እርስቱ": 7465,
      "ከ17": 7466,
      "ግብርን": 7467,
      "ምስረታ": 7468,
      "ወንጀሎችን": 7469,
      "ሆስፒታሉ": 7470,
      "3Ma7QTWቴሌግራም": 7471,
      "መዝገ": 7472,
      "የወላይታ": 7473,
      "በንቃት": 7474,
      "የደሴ": 7475,
      "በኢፌዴሪ": 7476,
      "ነዋሪዎችን": 7477,
      "ረጋግጥ": 7478,
      "ይሰጣል": 7479,
      "መልእክት": 7480,
      "ss": 7481,
      "ስለማ": 7482,
      "ቂላ": 7483,
      "ቦን": 7484,
      "ቲቫ": 7485,
      "ውቅ": 7486,
      "ዓም": 7487,
      "ዛት": 7488,
      "የግጭት": 7489,
      "ይባ": 7490,
      "የሚቃወም": 7491,
      "የመከላከል": 7492,
      "የኢትዮጵያውያን": 7493,
      "ያስታወቀው": 7494,
      "ተፈጻሚ": 7495,
      "ኃላፊነቱን": 7496,
      "ፌስቲቫ": 7497,
      "ልብስ": 7498,
      "ሰልጣ": 7499,
      "አክሊ": 7500,
      "ሸኔን": 7501,
      "ፈጽም": 7502,
      "የሚያደርገው": 7503,
      "ንብረታቸው": 7504,
      "ወራሪው": 7505,
      "በማዕድን": 7506,
      "የአመራር": 7507,
      "መከሩ": 7508,
      "ራዘም": 7509,
      "ሰፋ": 7510,
      "በፌደራል": 7511,
      "በቢሾፍቱ": 7512,
      "ቢቂላ": 7513,
      "ቲስት": 7514,
      "ከመስከረም": 7515,
      "ክምች": 7516,
      "ዎስ": 7517,
      "ዝን": 7518,
      "ነውየ": 7519,
      "እንዲያሳ": 7520,
      "አልፏል": 7521,
      "የትህነግ": 7522,
      "ስርአት": 7523,
      "ወርቁ": 7524,
      "ገኙት": 7525,
      "ገነዘ": 7526,
      "ምዕራባውያን": 7527,
      "እንዳይከሰት": 7528,
      "በከተማው": 7529,
      "የምታደርገውን": 7530,
      "viron": 7531,
      "ከሀረር": 7532,
      "አመስግ": 7533,
      "vironment": 7534,
      "rit": 7535,
      "ሃር": 7536,
      "ሊሴ": 7537,
      "በግንባታ": 7538,
      "በፖለቲካ": 7539,
      "በሶስት": 7540,
      "ታፍራ": 7541,
      "ቶቹን": 7542,
      "አላቸው": 7543,
      "እቅ": 7544,
      "ኮሳ": 7545,
      "ጋሉ": 7546,
      "ጸድ": 7547,
      "በተሻለ": 7548,
      "ማህበሩ": 7549,
      "ፌደሬሽን": 7550,
      "ባለሙያዎችን": 7551,
      "ፍቃዱ": 7552,
      "ተለዋ": 7553,
      "ዳግማዊት": 7554,
      "ዶሚኒየም": 7555,
      "በእጅጉ": 7556,
      "6600": 7557,
      "ምቢያ": 7558,
      "ሽቱ": 7559,
      "ቁጠባ": 7560,
      "በቫይረሱ": 7561,
      "ብሪ": 7562,
      "ተይዞ": 7563,
      "ዊው": 7564,
      "የ3": 7565,
      "የሽ": 7566,
      "የዩኒቨርሲቲ": 7567,
      "ግዳጅ": 7568,
      "ጣጣ": 7569,
      "የሚቆይ": 7570,
      "በአብዛ": 7571,
      "በረቂቅ": 7572,
      "አበባን": 7573,
      "ግሎባል": 7574,
      "ፓርኩ": 7575,
      "አምባቸው": 7576,
      "ዋናው": 7577,
      "የማምረት": 7578,
      "በማስተባበር": 7579,
      "ሥርዓቱን": 7580,
      "ህንጻ": 7581,
      "የጠቀሱት": 7582,
      "በሱራፌል": 7583,
      "መቅ": 7584,
      "መደብ": 7585,
      "ሸሽ": 7586,
      "በሕ": 7587,
      "በጉባኤው": 7588,
      "ተለያዩ": 7589,
      "ተላለፉ": 7590,
      "አሚ": 7591,
      "ኦት": 7592,
      "ከአምስት": 7593,
      "የ8ኛ": 7594,
      "ዲያስፖራ": 7595,
      "ለምር": 7596,
      "የመድ": 7597,
      "እየተሳተፈ": 7598,
      "የቀብር": 7599,
      "ሥርጭት": 7600,
      "ገቢው": 7601,
      "ገጽታ": 7602,
      "ገበየሁ": 7603,
      "ለመቀበል": 7604,
      "ማድረስ": 7605,
      "በራሳቸው": 7606,
      "ከፈቱ": 7607,
      "የስድስት": 7608,
      "ተገናኝ": 7609,
      "ያልተገባ": 7610,
      "ተነስቶ": 7611,
      "ገለገሉ": 7612,
      "መቆጣጠሪያ": 7613,
      "ሊሰጥ": 7614,
      "በከር": 7615,
      "በንብረት": 7616,
      "ብቸ": 7617,
      "ታቦር": 7618,
      "ነሃሴ": 7619,
      "ውቁ": 7620,
      "የሠ": 7621,
      "የዚህ": 7622,
      "የዜጎች": 7623,
      "የተያዘ": 7624,
      "የአቅመ": 7625,
      "በአሸ": 7626,
      "በአገ": 7627,
      "በማውጣት": 7628,
      "ጥናቱ": 7629,
      "ግጭቱ": 7630,
      "ብሄር": 7631,
      "አያኖ": 7632,
      "ጀርባ": 7633,
      "ቁሳቁሶችን": 7634,
      "የትራንስፖርትና": 7635,
      "በሚያስችሉ": 7636,
      "መጨመር": 7637,
      "በመጀመሪያው": 7638,
      "ሎጅስቲክስ": 7639,
      "ረቡዕ": 7640,
      "በቤትኪንግ": 7641,
      "የኮርፖ": 7642,
      "አስገንዝ": 7643,
      "700": 7644,
      "ሀመድ": 7645,
      "ለወርቅ": 7646,
      "ሊቢያ": 7647,
      "መጀመሪያ": 7648,
      "ሚል": 7649,
      "ረፍት": 7650,
      "ብቁ": 7651,
      "ተመላ": 7652,
      "ተረጋግ": 7653,
      "ከ500": 7654,
      "ኮቭ": 7655,
      "የገና": 7656,
      "ጅቶ": 7657,
      "ግታት": 7658,
      "ጫሉ": 7659,
      "ፍጆታ": 7660,
      "በአለም": 7661,
      "እንዲችሉ": 7662,
      "ለሚካሄደው": 7663,
      "ተባባሪ": 7664,
      "አጠናክራ": 7665,
      "መሣሪያዎች": 7666,
      "በመርሃ": 7667,
      "የአምስት": 7668,
      "አህጉራዊ": 7669,
      "ፊንፊኔ": 7670,
      "ኢሳያስ": 7671,
      "ሀዋሳ": 7672,
      "ማክሮ": 7673,
      "ሶሪያ": 7674,
      "የታቸውን": 7675,
      "ደመር": 7676,
      "ድሩን": 7677,
      "ጎጌ": 7678,
      "ጣሪዎች": 7679,
      "የተከለ": 7680,
      "የሚካሄድ": 7681,
      "የሚስተዋ": 7682,
      "አስጀምረዋል": 7683,
      "ብርኤል": 7684,
      "በማድረስ": 7685,
      "መውጣ": 7686,
      "ችልም": 7687,
      "አርበኞች": 7688,
      "ደረሰውን": 7689,
      "መጋዘን": 7690,
      "ለቀጣይ": 7691,
      "ማለፉ": 7692,
      "የወባ": 7693,
      "እንዳስታወቁት": 7694,
      "ማእከል": 7695,
      "መጠናቀቁ": 7696,
      "ምትኩ": 7697,
      "ምዘና": 7698,
      "ሞቱ": 7699,
      "ሲያስ": 7700,
      "ሷን": 7701,
      "ችለው": 7702,
      "ካናዳ": 7703,
      "የሀገራችን": 7704,
      "ጓጓ": 7705,
      "ጥምር": 7706,
      "እንሰራ": 7707,
      "መንቀሳቀስ": 7708,
      "በተባለ": 7709,
      "በተፈጥሮ": 7710,
      "ተፈጥ": 7711,
      "በልጆ": 7712,
      "ወቅትም": 7713,
      "የሰራዊት": 7714,
      "መግለጫው": 7715,
      "ማሳሰቢያ": 7716,
      "የመጀመሪያውን": 7717,
      "አጠናቆ": 7718,
      "ኤግዚቢ": 7719,
      "ህብረ": 7720,
      "ለሥራ": 7721,
      "ማኒ": 7722,
      "ምሕ": 7723,
      "ሾሙት": 7724,
      "በያ": 7725,
      "ቡላ": 7726,
      "ተጣ": 7727,
      "ካተት": 7728,
      "ጦት": 7729,
      "ክልከላ": 7730,
      "በተዘጋጀው": 7731,
      "ደረጃን": 7732,
      "በታንዛኒያ": 7733,
      "በምሥራቅ": 7734,
      "ኤርጎጌ": 7735,
      "ተዘዋው": 7736,
      "ልድ": 7737,
      "መከበር": 7738,
      "ሣህለ": 7739,
      "ቀመጡ": 7740,
      "ቦቿን": 7741,
      "ተመሠረተባቸው": 7742,
      "ናቀል": 7743,
      "ከትል": 7744,
      "ኪያስ": 7745,
      "ኮንት": 7746,
      "የለማ": 7747,
      "የዘር": 7748,
      "የ40": 7749,
      "የፈጠራ": 7750,
      "ያወጣው": 7751,
      "ዲዮን": 7752,
      "ጽዳት": 7753,
      "ለማጥፋት": 7754,
      "መሰጠት": 7755,
      "ምህረት": 7756,
      "የጠበቀ": 7757,
      "ክልሎችና": 7758,
      "ፕሮጀክትን": 7759,
      "ፈቃደኛ": 7760,
      "ቀልጣ": 7761,
      "ክህደት": 7762,
      "በባህርዳር": 7763,
      "ድህነት": 7764,
      "ያስታወሱት": 7765,
      "የሚሳተፉበት": 7766,
      "ኢንስቲትዩቱ": 7767,
      "አክሊሉ": 7768,
      "57": 7769,
      "58": 7770,
      "dy": 7771,
      "ለፓርላማ": 7772,
      "ሊምፒክ": 7773,
      "ሑድ": 7774,
      "መከሰ": 7775,
      "ማከናወን": 7776,
      "በዝቅተኛ": 7777,
      "ከሃ": 7778,
      "ከትና": 7779,
      "ዜሽን": 7780,
      "የጀመረ": 7781,
      "የዕለት": 7782,
      "የጀመረው": 7783,
      "ዳሽ": 7784,
      "እንግል": 7785,
      "መንጋ": 7786,
      "በተሰጠው": 7787,
      "ሊያደርግ": 7788,
      "ጠቃሚ": 7789,
      "ጉባዔውን": 7790,
      "በበይነ": 7791,
      "የአርሶ": 7792,
      "እሳቤ": 7793,
      "መነሳ": 7794,
      "ማቅ": 7795,
      "ሰሳ": 7796,
      "ቆሻሻ": 7797,
      "በቱሪዝም": 7798,
      "ታለች": 7799,
      "አወገ": 7800,
      "ክረምት": 7801,
      "ውጊያ": 7802,
      "የኤ": 7803,
      "ዩኔ": 7804,
      "እንደነበሩ": 7805,
      "ከተመድ": 7806,
      "በመቆም": 7807,
      "እንደሚኖረው": 7808,
      "በባቸው": 7809,
      "እየተደረጉ": 7810,
      "የማፍረስ": 7811,
      "ers": 7812,
      "ከሰሞኑ": 7813,
      "መጠበቅ": 7814,
      "ማኅበሩ": 7815,
      "አጋሮች": 7816,
      "እንዳልሆነ": 7817,
      "ሃይሉ": 7818,
      "በክሱ": 7819,
      "የሚመራው": 7820,
      "በዙፋን": 7821,
      "አብዱላሂ": 7822,
      "1ሺህ": 7823,
      "ry": 7824,
      "um": 7825,
      "ህና": 7826,
      "ለፉ": 7827,
      "ልፉ": 7828,
      "መቆም": 7829,
      "ቀትና": 7830,
      "ናይል": 7831,
      "የ6": 7832,
      "የፈረንሳይ": 7833,
      "የጁንታው": 7834,
      "ጋለች": 7835,
      "የተገለፀ": 7836,
      "የሚፈልጉ": 7837,
      "ለማዳ": 7838,
      "በመካሄድ": 7839,
      "እያደገ": 7840,
      "ትንኮሳ": 7841,
      "የኢጋድ": 7842,
      "ርዕሳነ": 7843,
      "ስፋፋ": 7844,
      "አረጋዊ": 7845,
      "ወዳጆች": 7846,
      "በከፈተው": 7847,
      "Un": 7848,
      "wor": 7849,
      "ለሦስት": 7850,
      "ላለን": 7851,
      "ማያዊ": 7852,
      "በዘር": 7853,
      "ችላሉ": 7854,
      "ነቡ": 7855,
      "ዕም": 7856,
      "የግብር": 7857,
      "ያሌ": 7858,
      "ግፍ": 7859,
      "ፍራን": 7860,
      "ለመደ": 7861,
      "ገለግል": 7862,
      "የንግ": 7863,
      "ውስጣ": 7864,
      "የጥራት": 7865,
      "አመራሮችን": 7866,
      "ሊያደርጉ": 7867,
      "በቅድ": 7868,
      "እንደሌለው": 7869,
      "ዕውቀት": 7870,
      "ld": 7871,
      "ሊሰሩ": 7872,
      "ላበረከቱ": 7873,
      "ማጥፋት": 7874,
      "ራስ": 7875,
      "ሳሉ": 7876,
      "ሺዎች": 7877,
      "ባላ": 7878,
      "ባለን": 7879,
      "ተክለ": 7880,
      "እዝ": 7881,
      "ከቤት": 7882,
      "የጅቡቲ": 7883,
      "የደረሱ": 7884,
      "የጀመረውን": 7885,
      "ጫል": 7886,
      "ጫፍ": 7887,
      "ፓርት": 7888,
      "የሚደር": 7889,
      "የአይ": 7890,
      "በመጠበቅ": 7891,
      "በርስ": 7892,
      "በረከት": 7893,
      "በማው": 7894,
      "ተፈጽ": 7895,
      "አደገኛ": 7896,
      "ልምምድ": 7897,
      "ተቀማጭ": 7898,
      "ህዝብና": 7899,
      "ክሮችን": 7900,
      "ተጠናክረው": 7901,
      "እድሜ": 7902,
      "ተለዩ": 7903,
      "በቀጣዩ": 7904,
      "እጃቸውን": 7905,
      "መስመሮች": 7906,
      "መወያየታቸውን": 7907,
      "እንሰራለን": 7908,
      "ht": 7909,
      "በ6": 7910,
      "በፓ": 7911,
      "ተመለከተ": 7912,
      "ኅብረ": 7913,
      "አመን": 7914,
      "አሽከርካሪዎች": 7915,
      "እሁድ": 7916,
      "ጠፋ": 7917,
      "ፒንግ": 7918,
      "የሚመጡ": 7919,
      "እንደሚቀጥሉ": 7920,
      "እንደሚከተለው": 7921,
      "ለመግታት": 7922,
      "አስተላለፈ": 7923,
      "ኃላፊዎችና": 7924,
      "ኃላፊነታቸውን": 7925,
      "ሠራተኞችን": 7926,
      "ከማድረግ": 7927,
      "ፕሮግራሙ": 7928,
      "ዎንታዊ": 7929,
      "have": 7930,
      "which": 7931,
      "ታፍራና": 7932,
      "et": 7933,
      "from": 7934,
      "ህሉ": 7935,
      "ለዜጎች": 7936,
      "ለሽብር": 7937,
      "ሰረ": 7938,
      "ስሙ": 7939,
      "በዲጂታል": 7940,
      "ተጓ": 7941,
      "ኝታ": 7942,
      "ከክልል": 7943,
      "ከሥራ": 7944,
      "ከትምህርት": 7945,
      "የፈ": 7946,
      "የእርስ": 7947,
      "የደንብ": 7948,
      "የግብይት": 7949,
      "ዮብ": 7950,
      "ፋክ": 7951,
      "እንዲነሳ": 7952,
      "በመከላከል": 7953,
      "እንደሚጀመር": 7954,
      "ስተሮች": 7955,
      "እየተዘጋጀ": 7956,
      "ተከና": 7957,
      "ተከፍ": 7958,
      "ተቋቁሞ": 7959,
      "ስርቆት": 7960,
      "ላማዊ": 7961,
      "ድርጅቶችን": 7962,
      "ማርክ": 7963,
      "አርጋ": 7964,
      "125": 7965,
      "ወጣቶችና": 7966,
      "ተከሳሾቹ": 7967,
      "vel": 7968,
      "ተደራሽነት": 7969,
      "ጉድጓ": 7970,
      "ሬዲዮ": 7971,
      "በማዕከላዊ": 7972,
      "ውዝግብ": 7973,
      "በስተቀር": 7974,
      "serv": 7975,
      "በልጆቿ": 7976,
      "76": 7977,
      "cti": 7978,
      "ህብረተሰብ": 7979,
      "ራጅ": 7980,
      "ርቻ": 7981,
      "ሰሱ": 7982,
      "ቅጥር": 7983,
      "በሁለተኛው": 7984,
      "ትጥቅ": 7985,
      "ቻር": 7986,
      "ኒየም": 7987,
      "አላዊ": 7988,
      "ክሬ": 7989,
      "ዎቻቸውን": 7990,
      "የ2": 7991,
      "የጅማ": 7992,
      "የዩኒቨርሲቲው": 7993,
      "የወረዳው": 7994,
      "ያሰባ": 7995,
      "ደመራ": 7996,
      "ጹህ": 7997,
      "የሚሠራ": 7998,
      "አስቀም": 7999,
      "እንዲፈጠር": 8000,
      "የመኪና": 8001,
      "ማህበረ": 8002,
      "በሚገኝ": 8003,
      "የማን": 8004,
      "ተሰበሰበ": 8005,
      "will": 8006,
      "ከዚህም": 8007,
      "የላቦራቶሪ": 8008,
      "ያቀረበውን": 8009,
      "ለመክፈል": 8010,
      "ኢንጅነር": 8011,
      "መምከራቸውን": 8012,
      "02": 8013,
      "96": 8014,
      "lle": 8015,
      "ላሳ": 8016,
      "ላሊት": 8017,
      "ሰሌዳ": 8018,
      "በጊዜያዊ": 8019,
      "ነኝ": 8020,
      "ኡዲ": 8021,
      "የደን": 8022,
      "የተጠቀ": 8023,
      "የተለየ": 8024,
      "ላይን": 8025,
      "ማስጠበቅ": 8026,
      "ውስን": 8027,
      "ላትን": 8028,
      "ቱንና": 8029,
      "ሰጥተው": 8030,
      "ወጣቱ": 8031,
      "በሰቡ": 8032,
      "ከሰኔ": 8033,
      "ዋጋት": 8034,
      "ስለመሆኑ": 8035,
      "ለቀጣ": 8036,
      "ለመከላከልና": 8037,
      "ጠብቁ": 8038,
      "ሥርዓትን": 8039,
      "ባለፈም": 8040,
      "ቤንሻንጉል": 8041,
      "የፓናል": 8042,
      "መዝገቡን": 8043,
      "riting": 8044,
      "ለህልውና": 8045,
      "ለዘመናት": 8046,
      "ሕዶ": 8047,
      "መሥራ": 8048,
      "ምዕ": 8049,
      "ሰናይ": 8050,
      "በፖሊስ": 8051,
      "በሀገራዊ": 8052,
      "ባለማ": 8053,
      "ቭላድ": 8054,
      "ታሪፍ": 8055,
      "ትህነግ": 8056,
      "ቶኪዮ": 8057,
      "ካቸው": 8058,
      "ዊድን": 8059,
      "ደመላሽ": 8060,
      "ጀግንነት": 8061,
      "ጆን": 8062,
      "ገጹ": 8063,
      "ገፅ": 8064,
      "ጌሾ": 8065,
      "ግሮ": 8066,
      "ጭኖ": 8067,
      "ጸጋ": 8068,
      "ፈቀድ": 8069,
      "በአፈ": 8070,
      "እንዲቀርብ": 8071,
      "በመፈጸም": 8072,
      "በተገናኘ": 8073,
      "ለመፈፀም": 8074,
      "ድርና": 8075,
      "በርግ": 8076,
      "የሕዳሴ": 8077,
      "ተጋድሎ": 8078,
      "የሀብት": 8079,
      "ማንኛውንም": 8080,
      "ሰጠውን": 8081,
      "ሰነዶች": 8082,
      "አባልነት": 8083,
      "ለማርያም": 8084,
      "ice": 8085,
      "ተገኘባቸው": 8086,
      "ኮሚሽነሩ": 8087,
      "እውነታ": 8088,
      "መፈጸሙን": 8089,
      "ስደተኞችን": 8090,
      "መግቢያ": 8091,
      "ሆሳዕና": 8092,
      "ፋክቸ": 8093,
      "ለሰብዓዊ": 8094,
      "መደቡ": 8095,
      "ረዥም": 8096,
      "ከንድ": 8097,
      "ኽምራ": 8098,
      "ዛር": 8099,
      "ያነጋ": 8100,
      "ይከበ": 8101,
      "አስነሳ": 8102,
      "በአራ": 8103,
      "እንዲሳተፉ": 8104,
      "እንደሚከበር": 8105,
      "መረጠ": 8106,
      "ከፍል": 8107,
      "እስክን": 8108,
      "የማኅበራዊ": 8109,
      "ተሰምቷል": 8110,
      "ጀመሩት": 8111,
      "ክርስቶ": 8112,
      "ሰንጋ": 8113,
      "የገንዘብና": 8114,
      "መዋሉን": 8115,
      "ዝግጁነት": 8116,
      "ገዳዎች": 8117,
      "የራሱን": 8118,
      "ድብቅ": 8119,
      "ጠበቀው": 8120,
      "አቅርቦትን": 8121,
      "ባርቅ": 8122,
      "ገናኘት": 8123,
      "ማስተዋወቅ": 8124,
      "የሚኒስቴሩ": 8125,
      "ርቻሮ": 8126,
      "ይከበራል": 8127,
      "ear": 8128,
      "ለዋ": 8129,
      "ሕል": 8130,
      "ሚናል": 8131,
      "ማመላለ": 8132,
      "በጦር": 8133,
      "ተይዘዋል": 8134,
      "ንቃቄ": 8135,
      "አከባበር": 8136,
      "እሳት": 8137,
      "የቻ": 8138,
      "የዋስትና": 8139,
      "ያቀ": 8140,
      "ዴል": 8141,
      "ጀንስ": 8142,
      "የተጠረ": 8143,
      "የሚነሱ": 8144,
      "ስትል": 8145,
      "ስራን": 8146,
      "ለማዳን": 8147,
      "በማሰባሰብ": 8148,
      "ብሔሮች": 8149,
      "መቀበል": 8150,
      "የሥራና": 8151,
      "አቅዶ": 8152,
      "ነጻነት": 8153,
      "ማመንጨት": 8154,
      "ተሰጥቷል": 8155,
      "ጋጥሙ": 8156,
      "...": 8157,
      "ኮንግረስ": 8158,
      "አስመርቋል": 8159,
      "vironmental": 8160,
      "ዩኔስኮ": 8161,
      "52": 8162,
      "72": 8163,
      "wri": 8164,
      "ለወጥ": 8165,
      "ሏን": 8166,
      "ሬዝ": 8167,
      "ሴና": 8168,
      "ሻሸ": 8169,
      "በዩክሬን": 8170,
      "ካላቸው": 8171,
      "ዋጌሾ": 8172,
      "የ15": 8173,
      "የዝናብ": 8174,
      "የሚና": 8175,
      "እንደሚያሳ": 8176,
      "በማካሄድ": 8177,
      "ተከናው": 8178,
      "ከ19": 8179,
      "ሻሻለ": 8180,
      "አማራጮችን": 8181,
      "ሪፖርቱ": 8182,
      "መክፈቻ": 8183,
      "የዓባይ": 8184,
      "የዓይነት": 8185,
      "ተራድኦ": 8186,
      "የሚያደርጉት": 8187,
      "ተመዝግ": 8188,
      "በሚቀጥሉት": 8189,
      "ለስ": 8190,
      "ለፈው": 8191,
      "ለጊዜው": 8192,
      "ለአብነት": 8193,
      "ሠልፍ": 8194,
      "ሰና": 8195,
      "ቆዩ": 8196,
      "ቲከ": 8197,
      "የቡድን": 8198,
      "የደረሰባቸው": 8199,
      "የሙከራ": 8200,
      "የግድቡ": 8201,
      "ጅተው": 8202,
      "ጣና": 8203,
      "ጦችን": 8204,
      "የተማሪዎች": 8205,
      "የሚደግፍ": 8206,
      "ለምዶ": 8207,
      "ኢንፎርሜሽን": 8208,
      "ከመጋቢት": 8209,
      "ሥርቶ": 8210,
      "የሰጠው": 8211,
      "ፈተናዎችን": 8212,
      "ያስፈልጋቸው": 8213,
      "ተዋሕዶ": 8214,
      "form": 8215,
      "ስትራቴጂክ": 8216,
      "ኮሚሽነሮች": 8217,
      "ሐረርጌ": 8218,
      "መቻቸት": 8219,
      "do": 8220,
      "writing": 8221,
      "መች": 8222,
      "መዘግ": 8223,
      "ምት": 8224,
      "ስቶች": 8225,
      "ኦማር": 8226,
      "ውር": 8227,
      "የአቅም": 8228,
      "በአፋጣኝ": 8229,
      "ያስገነባ": 8230,
      "እንዳስ": 8231,
      "ደቡባዊ": 8232,
      "ካሄዱት": 8233,
      "የፌዴራልና": 8234,
      "በራቸውን": 8235,
      "ዝርያ": 8236,
      "ካምፓ": 8237,
      "መክፈ": 8238,
      "ስርዓትን": 8239,
      "ምረቃ": 8240,
      "ጥይቶች": 8241,
      "መንስኤ": 8242,
      "አስተዳደራዊ": 8243,
      "ተገናኝተው": 8244,
      "እስክንድር": 8245,
      "መገልገ": 8246,
      "ሙላቱ": 8247,
      "ስፋት": 8248,
      "በእን": 8249,
      "በጉዳዩ": 8250,
      "ታሪ": 8251,
      "ከምክር": 8252,
      "ከሚኒስቴሩ": 8253,
      "የተፈጠረው": 8254,
      "የመሳሰ": 8255,
      "የነፃ": 8256,
      "በማረጋገጥ": 8257,
      "በማሸነፍ": 8258,
      "one": 8259,
      "ደበበ": 8260,
      "ያሳያል": 8261,
      "ችግርን": 8262,
      "ፖለቲከ": 8263,
      "ለመቀልበስ": 8264,
      "እንደሚያደርጉ": 8265,
      "አስተባባሪነት": 8266,
      "ፕሬዚዳንታዊ": 8267,
      "በመፍታት": 8268,
      "log": 8269,
      "የተቋሙ": 8270,
      "ከቀኑ": 8271,
      "አንቶኒዮ": 8272,
      "ሲኖዶስ": 8273,
      "መታቀዱን": 8274,
      "በአብዛኛው": 8275,
      "ለበርካታ": 8276,
      "ልገ": 8277,
      "መካሄዱ": 8278,
      "ሰሙ": 8279,
      "ሰበው": 8280,
      "ሲገኝ": 8281,
      "በጫ": 8282,
      "በዜጎች": 8283,
      "ቻለም": 8284,
      "አተገባ": 8285,
      "ከጊዜ": 8286,
      "ከግምት": 8287,
      "ዓይነ": 8288,
      "የብሔር": 8289,
      "ያተ": 8290,
      "ጎለ": 8291,
      "የተመሠረተ": 8292,
      "በተጠረጠሩ": 8293,
      "ትርያ": 8294,
      "ያሳየ": 8295,
      "እንደሆነም": 8296,
      "መሥረት": 8297,
      "ድርጊቶች": 8298,
      "Shares": 8299,
      "ጥሩነህ": 8300,
      "ክሲኮ": 8301,
      "ተወሰደ": 8302,
      "አስጠነቀቀ": 8303,
      "ሂሳብ": 8304,
      "ለር": 8305,
      "ሊክ": 8306,
      "ሻይ": 8307,
      "በእርስ": 8308,
      "በዘመናዊ": 8309,
      "በፕሪሚየር": 8310,
      "ባዘጋጀው": 8311,
      "ተደጋጋሚ": 8312,
      "ወጡት": 8313,
      "የፈረን": 8314,
      "ያደረ": 8315,
      "ደነገ": 8316,
      "ዳም": 8317,
      "በመሬት": 8318,
      "በመጫን": 8319,
      "ተርሚናል": 8320,
      "የሚገመቱ": 8321,
      "ተናገድ": 8322,
      "ለማስቀረት": 8323,
      "አፍሪካውያን": 8324,
      "እንደሚገባቸው": 8325,
      "መንገደኞች": 8326,
      "ማስተላለፍ": 8327,
      "ard": 8328,
      "የአካባቢውን": 8329,
      "አመልክቷል": 8330,
      "able": 8331,
      "ጥረቶች": 8332,
      "ማቀነባበሪያ": 8333,
      "ውስጣዊ": 8334,
      "ህጉ": 8335,
      "ለረጅም": 8336,
      "ሚያስ": 8337,
      "ርቷል": 8338,
      "ሺንግ": 8339,
      "በ15": 8340,
      "ብቶችን": 8341,
      "ተዘር": 8342,
      "ትራፊክ": 8343,
      "ቷቸዋል": 8344,
      "ኔዘርላንድ": 8345,
      "ከብሔራዊ": 8346,
      "ኪን": 8347,
      "ገብርኤል": 8348,
      "ፃሜ": 8349,
      "ለማረጋጋት": 8350,
      "ከናውን": 8351,
      "አዋሳ": 8352,
      "ጽንፈ": 8353,
      "ተጠርጣሪዎችን": 8354,
      "የጣሊያን": 8355,
      "ከቡት": 8356,
      "መባሉን": 8357,
      "እንዳይገቡ": 8358,
      "ph": 8359,
      "ለህልፈት": 8360,
      "ሉአላዊ": 8361,
      "ሸጡ": 8362,
      "በቂያ": 8363,
      "ባሌ": 8364,
      "ተል": 8365,
      "ታደር": 8366,
      "ቻልም": 8367,
      "ችሁን": 8368,
      "ኖረ": 8369,
      "አብረ": 8370,
      "እሴቶች": 8371,
      "እሑድ": 8372,
      "ዙን": 8373,
      "የቢሮ": 8374,
      "ፋልት": 8375,
      "የተሽከርካሪ": 8376,
      "በአካል": 8377,
      "በአሶሳ": 8378,
      "ለመውሰድ": 8379,
      "2019": 8380,
      "ከተማዋ": 8381,
      "የመተከል": 8382,
      "ተነሱ": 8383,
      "ደረሰኝ": 8384,
      "all": 8385,
      "አድና": 8386,
      "መክፈል": 8387,
      "አጋማሽ": 8388,
      "በመላክ": 8389,
      "የቅዱስ": 8390,
      "ዮናስ": 8391,
      "ማቅረባቸውን": 8392,
      "የተሳሳተ": 8393,
      "አሸንፏል": 8394,
      "የአትሌ": 8395,
      "ለግል": 8396,
      "ሊሰራ": 8397,
      "ርቱ": 8398,
      "ቃይት": 8399,
      "በ200": 8400,
      "እየቀረበ": 8401,
      "ወኪ": 8402,
      "የሁለተኛ": 8403,
      "የቢዝነስ": 8404,
      "’’": 8405,
      "እንዲቻል": 8406,
      "ማትን": 8407,
      "አበባው": 8408,
      "የኢሕአዴግ": 8409,
      "reached": 8410,
      "ውጤቶችን": 8411,
      "ለመቀየር": 8412,
      "በጎርፍ": 8413,
      "ወልቃይት": 8414,
      "ፈታህ": 8415,
      "በንፁ": 8416,
      "ፈጽመዋል": 8417,
      "ምልክ": 8418,
      "ገመገመ": 8419,
      "የሚጠጋ": 8420,
      "ፍኖተ": 8421,
      "ታራሚዎች": 8422,
      "ክምችት": 8423,
      "መጠቀ": 8424,
      "ማጠቃለያ": 8425,
      "በኤሌክትሪክ": 8426,
      "በኮን": 8427,
      "ነበ": 8428,
      "አዕምሮ": 8429,
      "የዞን": 8430,
      "የወረዳ": 8431,
      "ፊው": 8432,
      "ፓትርያ": 8433,
      "የተመለከተ": 8434,
      "የተመዘገቡ": 8435,
      "የአቶ": 8436,
      "በመጣ": 8437,
      "በመገንዘብ": 8438,
      "በተለምዶ": 8439,
      "ዩኒሴፍ": 8440,
      "ተፈር": 8441,
      "እያሉ": 8442,
      "ገራቱ": 8443,
      "አደሩን": 8444,
      "ኃላፊነታቸው": 8445,
      "ግንኙነትና": 8446,
      "የታገ": 8447,
      "ስብከት": 8448,
      "ሳተላይት": 8449,
      "የሀሰት": 8450,
      "tic": 8451,
      "ሰርጎ": 8452,
      "ስትራሊያ": 8453,
      "ካንሰር": 8454,
      "ወያኔ": 8455,
      "ፈፀሙ": 8456,
      "አስረድቷል": 8457,
      "ከ300": 8458,
      "ተዋጊ": 8459,
      "ባለመቻሉ": 8460,
      "ያዘጋጁ": 8461,
      "የከፈተውን": 8462,
      "በተቀናጀ": 8463,
      "study": 8464,
      "ብርሀኑ": 8465,
      "ላኪዎች": 8466,
      "ይባርክ": 8467,
      "ማመላለሻ": 8468,
      "መለያ": 8469,
      "መዲና": 8470,
      "መጠናቀቅ": 8471,
      "ማና": 8472,
      "ማዳ": 8473,
      "ቀነ": 8474,
      "በጸጥታ": 8475,
      "ባቀረበው": 8476,
      "ኖክ": 8477,
      "አዎንታዊ": 8478,
      "ኪር": 8479,
      "ካውን": 8480,
      "የ14": 8481,
      "ደዋ": 8482,
      "ጉጂ": 8483,
      "ጤፍ": 8484,
      "አስፋው": 8485,
      "እንደነበረ": 8486,
      "መንጨት": 8487,
      "በተገኘ": 8488,
      "በተሳካ": 8489,
      "በተለየ": 8490,
      "በማከናወን": 8491,
      "የማዳበሪያ": 8492,
      "አሳው": 8493,
      "our": 8494,
      "ገበው": 8495,
      "ቲካል": 8496,
      "የሀይማኖት": 8497,
      "የቆዳ": 8498,
      "አስፈጻሚው": 8499,
      "መሳሪያዎችን": 8500,
      "ሂደቱን": 8501,
      "ቴክኒክና": 8502,
      "ማቀዱን": 8503,
      "ግብዓቶችን": 8504,
      "ተጎጂዎች": 8505,
      "በጉብኝቱ": 8506,
      "አስገንዝበዋል": 8507,
      "63": 8508,
      "fin": 8509,
      "ለአማራ": 8510,
      "ሌም": 8511,
      "ልቀት": 8512,
      "መመረ": 8513,
      "ራስን": 8514,
      "ቆያ": 8515,
      "በሠ": 8516,
      "በደም": 8517,
      "በሳይንስ": 8518,
      "ቦይንግ": 8519,
      "ናበቱ": 8520,
      "ከ25": 8521,
      "ውብ": 8522,
      "ዓሊ": 8523,
      "ዘበ": 8524,
      "የ4": 8525,
      "አስገ": 8526,
      "በተቃ": 8527,
      "ያንግ": 8528,
      "በልግ": 8529,
      "ውድነት": 8530,
      "የፀጥታው": 8531,
      "በስነ": 8532,
      "እምቅ": 8533,
      "አሳስቧል": 8534,
      "ስተዋወቅ": 8535,
      "ገምገም": 8536,
      "የተገኘውን": 8537,
      "የአምራች": 8538,
      "እየመከረ": 8539,
      "ተዘጋጅቶ": 8540,
      "ይጀምራል": 8541,
      "ኤግዚቢሽን": 8542,
      "ሻሸመኔ": 8543,
      "አዋሳኝ": 8544,
      "sh": 8545,
      "ሁሩ": 8546,
      "ለዘላለም": 8547,
      "ላንት": 8548,
      "ሟን": 8549,
      "ቁመና": 8550,
      "ተማ": 8551,
      "ተፎካካሪ": 8552,
      "ኢሕአዴግ": 8553,
      "ዎት": 8554,
      "የሳይንስ": 8555,
      "የ100": 8556,
      "የዘንድሮው": 8557,
      "የረጅም": 8558,
      "የኢንተርኔት": 8559,
      "ደቁ": 8560,
      "ጋች": 8561,
      "ጌትነት": 8562,
      "ግፊት": 8563,
      "የሚሰጠውን": 8564,
      "ለትምህርት": 8565,
      "ለመተካት": 8566,
      "ባለመሆኑ": 8567,
      "ከፍንጅ": 8568,
      "እየደረሰ": 8569,
      "ጊዜም": 8570,
      "ተገደ": 8571,
      "የሰማያዊ": 8572,
      "ምርትን": 8573,
      "ዴሞክራቲክ": 8574,
      "በየጊዜው": 8575,
      "መርኃግብር": 8576,
      "መብራት": 8577,
      "መቆየታቸውን": 8578,
      "ተሸከር": 8579,
      "ተለጀንስ": 8580,
      "የአልሸባብ": 8581,
      "ከናውኑ": 8582,
      "በሚቀጥለው": 8583,
      "አድማሱ": 8584,
      "መድሃኒት": 8585,
      "ፌስቲቫል": 8586,
      "ፋክቸሪንግ": 8587,
      "ሀሴ": 8588,
      "ለከፍተኛ": 8589,
      "ሎጀ": 8590,
      "ሕግን": 8591,
      "ሙድ": 8592,
      "ራሉ": 8593,
      "ሰከንድ": 8594,
      "ሲስተ": 8595,
      "ስህ": 8596,
      "ሻሽ": 8597,
      "በክብር": 8598,
      "በፋይናንስ": 8599,
      "ቲዩት": 8600,
      "ኅለወርቅ": 8601,
      "ውለዋል": 8602,
      "የኪነ": 8603,
      "ጅምላ": 8604,
      "የተመሠረተባቸው": 8605,
      "የሚዘ": 8606,
      "እንዲቀጥሉ": 8607,
      "በተና": 8608,
      "ለመል": 8609,
      "ከ12": 8610,
      "ስርአ": 8611,
      "ወሓትና": 8612,
      "የተቀመጠ": 8613,
      "አለቃ": 8614,
      "ፈልገው": 8615,
      "ition": 8616,
      "ዝርጋታ": 8617,
      "ኖርም": 8618,
      "ደገፈ": 8619,
      "በውይይታቸው": 8620,
      "የሚታዩ": 8621,
      "ዘረፋ": 8622,
      "መድኃኒ": 8623,
      "ሥምምነት": 8624,
      "አለመግባባት": 8625,
      "አበርክ": 8626,
      "fi": 8627,
      "ለሰራዊቱ": 8628,
      "ለመሰማራት": 8629,
      "ሐሰን": 8630,
      "ማልማት": 8631,
      "ተሪ": 8632,
      "ቻላቸው": 8633,
      "ከአሸባሪው": 8634,
      "ከፌደራል": 8635,
      "ኮድ": 8636,
      "የበረራ": 8637,
      "ጨም": 8638,
      "ጾች": 8639,
      "የሚረዳ": 8640,
      "እንዲህ": 8641,
      "በተስፋ": 8642,
      "መራው": 8643,
      "ኃይልና": 8644,
      "ሬትስ": 8645,
      "የሃገሪቱ": 8646,
      "በውሃ": 8647,
      "ከሚኖሩ": 8648,
      "ቦታዎችን": 8649,
      "ባልደረ": 8650,
      "የማዕረግ": 8651,
      "ዋስትናን": 8652,
      "በረታታት": 8653,
      "ፓርክን": 8654,
      "ሰበውን": 8655,
      "ለፍነው": 8656,
      "የተሰጠውን": 8657,
      "ሬዲንግ": 8658,
      "ባባቂ": 8659,
      "ቤተሰቦቻቸው": 8660,
      "ዲዛይን": 8661,
      "የአብሮነት": 8662,
      "ሻምበል": 8663,
      "ልገሳ": 8664,
      "ሃድሶ": 8665,
      "መጓ": 8666,
      "ስፖር": 8667,
      "በክልሎች": 8668,
      "በሁለተኛ": 8669,
      "በሚኒስቴሩ": 8670,
      "ባጫ": 8671,
      "ተም": 8672,
      "ትሬዲንግ": 8673,
      "አመለካ": 8674,
      "ኢተፋ": 8675,
      "ካቶ": 8676,
      "ዕሰ": 8677,
      "የቡ": 8678,
      "የቤቶች": 8679,
      "የዘንድሮ": 8680,
      "የናይጄሪያ": 8681,
      "ጣሪያ": 8682,
      "ፋፋ": 8683,
      "ላይዝድ": 8684,
      "የአፈ": 8685,
      "ለማጎልበት": 8686,
      "መረዳት": 8687,
      "tem": 8688,
      "ኢንሹራንስ": 8689,
      "ሰራጩ": 8690,
      "ተጠባባቂ": 8691,
      "የህንድ": 8692,
      "ኢንዱስትሪው": 8693,
      "በማስታ": 8694,
      "ተመርቆ": 8695,
      "በህንድ": 8696,
      "ገደሉ": 8697,
      "ረመዳን": 8698,
      "ለተፈናቃዮች": 8699,
      "አውቶቡ": 8700,
      "አስረክበዋል": 8701,
      "የማኅበረሰብ": 8702,
      "እየታየ": 8703,
      "የኒውክሌር": 8704,
      "ጫልቱ": 8705,
      "ሺንግተን": 8706,
      "ለደቡብ": 8707,
      "ማሸነፍ": 8708,
      "ረፈ": 8709,
      "ሰበር": 8710,
      "ሲሰጥ": 8711,
      "በሰብዓዊ": 8712,
      "በብዙ": 8713,
      "በየትኛውም": 8714,
      "ከፀጥታ": 8715,
      "ካናይ": 8716,
      "የስልክ": 8717,
      "የሠራዊት": 8718,
      "የሪፎርም": 8719,
      "ጽሁፍ": 8720,
      "የተዋ": 8721,
      "የተደረጉ": 8722,
      "ለማሟላት": 8723,
      "ለማስተዋወቅ": 8724,
      "2020": 8725,
      "ለንደን": 8726,
      "ስልጤ": 8727,
      "ያለበትን": 8728,
      "ሰራር": 8729,
      "ገኘት": 8730,
      "ለማስቆም": 8731,
      "ገቢዎችና": 8732,
      "አይሻ": 8733,
      "ተቀም": 8734,
      "በማስመሰል": 8735,
      "ሕዝቦቿን": 8736,
      "ማለሁ": 8737,
      "ከነበረ": 8738,
      "በመቀነስ": 8739,
      "ወረርሽኙ": 8740,
      "ተኮስ": 8741,
      "ሚዲያና": 8742,
      "በግማሽ": 8743,
      "ታስረው": 8744,
      "ገጣጠ": 8745,
      "የቱሪስት": 8746,
      "54": 8747,
      "ሃሰተኛ": 8748,
      "ምከር": 8749,
      "በጂቡቲ": 8750,
      "ቪዛ": 8751,
      "አጠናቀው": 8752,
      "ዴሳ": 8753,
      "ጡረታ": 8754,
      "ጽናት": 8755,
      "የተራ": 8756,
      "የተዛ": 8757,
      "በማቋቋም": 8758,
      "ትልቁ": 8759,
      "ዳርቻ": 8760,
      "ጥሪውን": 8761,
      "የተባሉት": 8762,
      "አረፋ": 8763,
      "ጉምዝ": 8764,
      "ካርቱም": 8765,
      "ገጠም": 8766,
      "now": 8767,
      "ፕሮግራሞች": 8768,
      "የቴክኒክና": 8769,
      "ቅንጅ": 8770,
      "ፀድቅ": 8771,
      "ሙስሊሙ": 8772,
      "ia": 8773,
      "ሙያዊ": 8774,
      "ማሽን": 8775,
      "ሦስቱ": 8776,
      "ሮቭ": 8777,
      "ሳቦችን": 8778,
      "ቀዱ": 8779,
      "ቀጦች": 8780,
      "በድጋፍ": 8781,
      "በበርካታ": 8782,
      "ታምሩ": 8783,
      "ቾችን": 8784,
      "አፋጣኝ": 8785,
      "ኡሁሩ": 8786,
      "እየቀ": 8787,
      "ከሞ": 8788,
      "ከወጪ": 8789,
      "ከጥቅምት": 8790,
      "ዦች": 8791,
      "የወጡ": 8792,
      "የስልጠና": 8793,
      "ያግዛ": 8794,
      "ይችላሉ": 8795,
      "ዶክት": 8796,
      "ጁባ": 8797,
      "ገዢ": 8798,
      "ጣሉ": 8799,
      "ፀር": 8800,
      "ነውየኢትዮጵያ": 8801,
      "2022": 8802,
      "በመረጃ": 8803,
      "ለመስ": 8804,
      "ፕሮፖ": 8805,
      "መውጫ": 8806,
      "ክርስትና": 8807,
      "ተነሳሽ": 8808,
      "199": 8809,
      "ግደል": 8810,
      "ፋርማ": 8811,
      "አሰቃቂ": 8812,
      "አረጋውያን": 8813,
      "መቆራረ": 8814,
      "ስትራቴጂካዊ": 8815,
      "በምርጫው": 8816,
      "የተቃውሞ": 8817,
      "በአዋጅ": 8818,
      "የአሸባሪውን": 8819,
      "እልባት": 8820,
      "አተገባበር": 8821,
      "120": 8822,
      "ህደት": 8823,
      "ሊወጡ": 8824,
      "ላቻ": 8825,
      "ሸራ": 8826,
      "ቃለል": 8827,
      "በ4": 8828,
      "በወጣው": 8829,
      "በሃገር": 8830,
      "ባትን": 8831,
      "ተለይ": 8832,
      "ታምርት": 8833,
      "ትሕነግ": 8834,
      "ነሀሴ": 8835,
      "ያነ": 8836,
      "እንድን": 8837,
      "የሚፈጥር": 8838,
      "እንዲኖረው": 8839,
      "በመዝ": 8840,
      "በመጋ": 8841,
      "ለመወሰን": 8842,
      "በማምረት": 8843,
      "ገባም": 8844,
      "ግድቡን": 8845,
      "የምጣኔ": 8846,
      "ብረትና": 8847,
      "ከታክስ": 8848,
      "ቀረው": 8849,
      "ቴክኒ": 8850,
      "ሰነዶችን": 8851,
      "ደርጉት": 8852,
      "እየሰራች": 8853,
      "ውሃና": 8854,
      "በንፋስ": 8855,
      "የተደረገበት": 8856,
      "በቂርቆስ": 8857,
      "መብትና": 8858,
      "ጥሰቶች": 8859,
      "ተመልክቷል": 8860,
      "ትምህርታቸውን": 8861,
      "የንፁህ": 8862,
      "61": 8863,
      "par": 8864,
      "ሀር": 8865,
      "ሁከት": 8866,
      "ለኢ": 8867,
      "ለዩ": 8868,
      "ለፊት": 8869,
      "ሏቸው": 8870,
      "መኳን": 8871,
      "ማዘጋጀ": 8872,
      "በሪ": 8873,
      "በግብፅ": 8874,
      "ቤጂንግ": 8875,
      "ብጥብ": 8876,
      "የአስተዳደሩ": 8877,
      "የተጀመረ": 8878,
      "ደረጀ": 8879,
      "በመተው": 8880,
      "በመውጣት": 8881,
      "ማስወገድ": 8882,
      "በማሻሻል": 8883,
      "ክፍሌ": 8884,
      "አብዮ": 8885,
      "አውስተዋል": 8886,
      "መጠየ": 8887,
      "ይበልጣል": 8888,
      "ብልሹ": 8889,
      "የእስልምና": 8890,
      "ከባከብ": 8891,
      "ኃይሎችን": 8892,
      "ስርዓቱን": 8893,
      "ኤርሚያስ": 8894,
      "ታንዛ": 8895,
      "ብሊን": 8896,
      "ምልከታ": 8897,
      "ሊንጦ": 8898,
      "ድህረ": 8899,
      "የሚጠጉ": 8900,
      "ቤልጂ": 8901,
      "ሴክሬታሪያት": 8902,
      "መኳንንት": 8903,
      "mo": 8904,
      "sch": 8905,
      "ሃመድ": 8906,
      "ሄደ": 8907,
      "ላጠ": 8908,
      "ሾመ": 8909,
      "ቂርቆስ": 8910,
      "ተይዘው": 8911,
      "ትኑር": 8912,
      "ከወ": 8913,
      "የጉዞ": 8914,
      "የገበታ": 8915,
      "ጋለን": 8916,
      "ጠዋት": 8917,
      "የተሳካ": 8918,
      "ማስቀጠል": 8919,
      "ያስቆ": 8920,
      "ሆንም": 8921,
      "ወሰዱት": 8922,
      "የማሳ": 8923,
      "ግዛቸው": 8924,
      "በሰለ": 8925,
      "ምስክሮች": 8926,
      "ከሰሜን": 8927,
      "ኢንቨስተሮች": 8928,
      "ወልድያ": 8929,
      "ለገሱ": 8930,
      "ካሳው": 8931,
      "ወዳደሩ": 8932,
      "በላከው": 8933,
      "የወጣውን": 8934,
      "ቆጠቡ": 8935,
      "ህወሓትን": 8936,
      "ሊባ": 8937,
      "መኩ": 8938,
      "መጉ": 8939,
      "መተከል": 8940,
      "ማጠናቀ": 8941,
      "ራዩ": 8942,
      "ታክሲ": 8943,
      "ንፋስ": 8944,
      "አትር": 8945,
      "አማን": 8946,
      "አጎራባች": 8947,
      "ኩት": 8948,
      "ካኔ": 8949,
      "ደመወዝ": 8950,
      "ጆር": 8951,
      "ጎረቤት": 8952,
      "ፈቅ": 8953,
      "በመደበኛ": 8954,
      "ጠናቅ": 8955,
      "ኢንተለጀንስ": 8956,
      "እየተወያዩ": 8957,
      "የጥበቃ": 8958,
      "ተገበሩ": 8959,
      "በርካቶች": 8960,
      "ደረጃውን": 8961,
      "ፕሮጀክቶ": 8962,
      "ውሳኔዎች": 8963,
      "አቅምን": 8964,
      "ተወካዮችና": 8965,
      "ዲፕሎማቲክ": 8966,
      "መፍጠ": 8967,
      "እንደምትቀጥል": 8968,
      "ቋረጡ": 8969,
      "በግብርናው": 8970,
      "ፍጣር": 8971,
      "ተቋቋመ": 8972,
      "እንግልት": 8973,
      "ሕጉ": 8974,
      "መቋቋም": 8975,
      "መቃወ": 8976,
      "ምደ": 8977,
      "ሰተኞች": 8978,
      "ሲንቀሳቀስ": 8979,
      "ሴኔ": 8980,
      "ቤቶቹ": 8981,
      "ኋል": 8982,
      "ንበት": 8983,
      "እግዚ": 8984,
      "ወከል": 8985,
      "ዕይ": 8986,
      "ዚን": 8987,
      "የክፍለ": 8988,
      "የ2016": 8989,
      "ገፍ": 8990,
      "ፍሰት": 8991,
      "በአማ": 8992,
      "በተገቢው": 8993,
      "አካውን": 8994,
      "በሚገባ": 8995,
      "የጥናት": 8996,
      "ተፈሪ": 8997,
      "አደሮችን": 8998,
      "ባሳለፍነው": 8999,
      "ስምምነቶች": 9000,
      "ዘመነ": 9001,
      "ቤቶችና": 9002,
      "ተናግረው": 9003,
      "ወገኖ": 9004,
      "እንደሌለ": 9005,
      "የቆዩት": 9006,
      "የተደረገውን": 9007,
      "የተከሰሱ": 9008,
      "የኦዲት": 9009,
      "ተመራጭ": 9010,
      "ካሂደው": 9011,
      "ጥቃቶችን": 9012,
      "እነዚህን": 9013,
      "መያዛቸው": 9014,
      "በማንኛውም": 9015,
      "ድምፃዊ": 9016,
      "መመለሳቸውን": 9017,
      "goo": 9018,
      "special": 9019,
      "ተከናወነ": 9020,
      "59": 9021,
      "dis": 9022,
      "gra": 9023,
      "ለልማት": 9024,
      "መሻሻል": 9025,
      "ሰም": 9026,
      "ሿሚ": 9027,
      "ቆንስላ": 9028,
      "ተመን": 9029,
      "ተቃወ": 9030,
      "ቻላል": 9031,
      "ነቷ": 9032,
      "ከፊ": 9033,
      "ከስምምነት": 9034,
      "ጢሞ": 9035,
      "ጭካኔ": 9036,
      "የመፍ": 9037,
      "የህጻናት": 9038,
      "ግንባታቸው": 9039,
      "አብን": 9040,
      "አብያተ": 9041,
      "ለሚሹ": 9042,
      "ትምህርትና": 9043,
      "ተወያየ": 9044,
      "እንዲያገኝ": 9045,
      "ቋቋመው": 9046,
      "ስተናገድ": 9047,
      "ሕዝብን": 9048,
      "ድርጅቶችና": 9049,
      "ኤጀንሲዎች": 9050,
      "ከማቸ": 9051,
      "ነዋሪዎቹ": 9052,
      "መረጋጋ": 9053,
      "አቅርቦትና": 9054,
      "በአርባ": 9055,
      "የህዝቡን": 9056,
      "መዋቅሮች": 9057,
      "መሥተዳድር": 9058,
      "ቭላድሚር": 9059,
      "ብሊንከን": 9060,
      "la": 9061,
      "ሉም": 9062,
      "ልባ": 9063,
      "ሐት": 9064,
      "ቶቻቸውን": 9065,
      "ክሱ": 9066,
      "ዔል": 9067,
      "የሌሎች": 9068,
      "ይዘን": 9069,
      "ደፍ": 9070,
      "ጥበት": 9071,
      "ፋሉ": 9072,
      "ፖዚ": 9073,
      "ፖስታ": 9074,
      "የተሰራ": 9075,
      "የተጠናከረ": 9076,
      "የሚቀርቡ": 9077,
      "ነውኢትዮጵያ": 9078,
      "በመሰብ": 9079,
      "በመቐለ": 9080,
      "በተፈጠረ": 9081,
      "ግብዣ": 9082,
      "ግንኙነትን": 9083,
      "ነገሮች": 9084,
      "የካር": 9085,
      "ኮሚቴዎች": 9086,
      "ለመቀላቀል": 9087,
      "ማድረሱን": 9088,
      "የተፈፀ": 9089,
      "የከተማዋን": 9090,
      "ጠቁሟል": 9091,
      "የሲቪክ": 9092,
      "ጣልያን": 9093,
      "በቅርብ": 9094,
      "በመቀሌ": 9095,
      "ክተሮች": 9096,
      "በሳሙኤል": 9097,
      "ይርጋ": 9098,
      "አቅራቢያ": 9099,
      "Comments": 9100,
      "ሰራዊትን": 9101,
      "እኩልነት": 9102,
      "የተሰማውን": 9103,
      "ስፔሻላይዝድ": 9104,
      "by": 9105,
      "ሁል": 9106,
      "ለታል": 9107,
      "ሊጀምር": 9108,
      "ርስ": 9109,
      "ሮስ": 9110,
      "ስለተ": 9111,
      "በሕወሓት": 9112,
      "ቴን": 9113,
      "ከፈት": 9114,
      "ይቻላል": 9115,
      "ጸረ": 9116,
      "ፍቅ": 9117,
      "የተካሄደ": 9118,
      "የአሰራር": 9119,
      "በመቆጣጠር": 9120,
      "የመሸ": 9121,
      "አምስተኛ": 9122,
      "አስታውሷል": 9123,
      "ሊያም": 9124,
      "ገንዘብና": 9125,
      "ities": 9126,
      "የሀዋሳ": 9127,
      "ብሮን": 9128,
      "ኖርዌይ": 9129,
      "አስፈጻሚዎች": 9130,
      "ዞኖችና": 9131,
      "የዳቦ": 9132,
      "ተጠያቂነት": 9133,
      "ጥፋተኛ": 9134,
      "ፕሬዝዳንቱ": 9135,
      "መኩሪያ": 9136,
      "ሌሊት": 9137,
      "መስተ": 9138,
      "ምሰ": 9139,
      "ሪዞ": 9140,
      "ሻውን": 9141,
      "ቅል": 9142,
      "በርት": 9143,
      "በሠላም": 9144,
      "በእንግሊዝ": 9145,
      "አነሳ": 9146,
      "አሰባሰብ": 9147,
      "እኖ": 9148,
      "ኦሎ": 9149,
      "ከዚያ": 9150,
      "ኮራ": 9151,
      "የቴሌ": 9152,
      "የክትባት": 9153,
      "የዩክሬን": 9154,
      "ፀሐፊ": 9155,
      "የሚባል": 9156,
      "የሚጥል": 9157,
      "የሚከበረው": 9158,
      "የአዳማ": 9159,
      "እንዲመጣ": 9160,
      "እንዲጠናከር": 9161,
      "ለመገናኛ": 9162,
      "የመነ": 9163,
      "የመስጠት": 9164,
      "እየለማ": 9165,
      "እየገቡ": 9166,
      "ደረጃዎች": 9167,
      "በሰበው": 9168,
      "የኮም": 9169,
      "ግጭቶችን": 9170,
      "ውይይቶች": 9171,
      "ማሽነ": 9172,
      "ዝግጅቱ": 9173,
      "cien": 9174,
      "ጉልበት": 9175,
      "ቤንች": 9176,
      "ሳልቫ": 9177,
      "ሀይሉ": 9178,
      "አውሮፕላኖች": 9179,
      "ሽጉጥ": 9180,
      "የኮሙዩኒኬሽን": 9181,
      "79": 9182,
      "how": 9183,
      "መደም": 9184,
      "ርጠው": 9185,
      "ሲካ": 9186,
      "በጽህፈት": 9187,
      "በኤርትራ": 9188,
      "በኒው": 9189,
      "ብዝ": 9190,
      "ኔቶ": 9191,
      "ንደቅ": 9192,
      "ንላይን": 9193,
      "ኡመር": 9194,
      "ከጥር": 9195,
      "ከሕዝብ": 9196,
      "ዐውደ": 9197,
      "የሦስት": 9198,
      "የፈረ": 9199,
      "ይሄ": 9200,
      "ይሉ": 9201,
      "ዲላ": 9202,
      "ድጉ": 9203,
      "ዷን": 9204,
      "ጅራ": 9205,
      "ጋን": 9206,
      "ጠበቃ": 9207,
      "ፍጻሜ": 9208,
      "የአሁኑ": 9209,
      "ለማህ": 9210,
      "እንዲኖራቸው": 9211,
      "ክልት": 9212,
      "ያለባቸውን": 9213,
      "በማጠናቀቅ": 9214,
      "የማንነት": 9215,
      "የህይወት": 9216,
      "መሠረ": 9217,
      "ከ60": 9218,
      "ሀገራቸውን": 9219,
      "ማለፍ": 9220,
      "እውነት": 9221,
      "ከምሽቱ": 9222,
      "በጣሊያን": 9223,
      "በመርኃ": 9224,
      "ተፈናቃዮችን": 9225,
      "ህፃናትን": 9226,
      "ነበረበት": 9227,
      "በካናዳ": 9228,
      "እህት": 9229,
      "ብሄረሰቦች": 9230,
      "መውሰዱን": 9231,
      "ያነጋገራቸው": 9232,
      "3ኛው": 9233,
      "900": 9234,
      "fic": 9235,
      "ለብሔራዊ": 9236,
      "ሊሻ": 9237,
      "ሕጎች": 9238,
      "መኑ": 9239,
      "ሚሳኤል": 9240,
      "ሣኅለወርቅ": 9241,
      "ረከብ": 9242,
      "ሲና": 9243,
      "ሳፋሪ": 9244,
      "ቴአትር": 9245,
      "ቸገሩ": 9246,
      "ቻን": 9247,
      "ኡስማን": 9248,
      "ከቫይረሱ": 9249,
      "ኮሪ": 9250,
      "ኸኝ": 9251,
      "የኅብረት": 9252,
      "የገባው": 9253,
      "ያያዙ": 9254,
      "ፊሻል": 9255,
      "እንደተገኘባቸው": 9256,
      "በመሄድ": 9257,
      "በተከናወነ": 9258,
      "እንደሚሠራ": 9259,
      "የንቅናቄ": 9260,
      "ክፍሎችን": 9261,
      "የተቀመጡ": 9262,
      "አፈጉባኤ": 9263,
      "ቅናሽ": 9264,
      "አገርን": 9265,
      "ሰልፉ": 9266,
      "በነዳጅ": 9267,
      "environmental": 9268,
      "ሰለባ": 9269,
      "ለአብርሆት": 9270,
      "ከአሥር": 9271,
      "ተመሥርቶ": 9272,
      "የምስረታ": 9273,
      "ሲገኝባቸው": 9274,
      "up": 9275,
      "ህወ": 9276,
      "ለክልሎች": 9277,
      "ልህቀት": 9278,
      "ምትክ": 9279,
      "ሰአት": 9280,
      "ሰፈር": 9281,
      "ቀትን": 9282,
      "በ11": 9283,
      "በ2012": 9284,
      "ቧን": 9285,
      "ተላ": 9286,
      "ተሟ": 9287,
      "ተዓ": 9288,
      "ትላንት": 9289,
      "ኃኒት": 9290,
      "ዌር": 9291,
      "የፕሮጀክት": 9292,
      "ያዣ": 9293,
      "ይገልጻ": 9294,
      "ጊኒ": 9295,
      "ግሬሽን": 9296,
      "ፋል": 9297,
      "ቸውም": 9298,
      "የአባ": 9299,
      "ውንድ": 9300,
      "እንደሚሆኑ": 9301,
      "የመር": 9302,
      "እየተገነቡ": 9303,
      "በሚፈለገው": 9304,
      "መለወርቅ": 9305,
      "ኃላፊና": 9306,
      "ደራደር": 9307,
      "ገብቶ": 9308,
      "እንዲያቀርብ": 9309,
      "ቋቋመ": 9310,
      "አነጋግ": 9311,
      "ለተጨማሪ": 9312,
      "የነበሩትን": 9313,
      "ከፈተ": 9314,
      "መርሃግብር": 9315,
      "ጠባበቅ": 9316,
      "ሳንቲም": 9317,
      "ምጣቱ": 9318,
      "በሚያስችል": 9319,
      "velop": 9320,
      "ክርስቶስ": 9321,
      "መገልገያ": 9322,
      "በመሰብሰብ": 9323,
      "gram": 9324,
      "tra": 9325,
      "ለግብርና": 9326,
      "ለጋዜጠኞች": 9327,
      "ልኡ": 9328,
      "ሐመድ": 9329,
      "ምገባ": 9330,
      "ሲሰሩ": 9331,
      "ሲደርስ": 9332,
      "ሲዘዋወር": 9333,
      "ስክ": 9334,
      "ስጦታ": 9335,
      "ሸፈ": 9336,
      "ቆሬ": 9337,
      "በድንበር": 9338,
      "ቦሩ": 9339,
      "ተካል": 9340,
      "አየለ": 9341,
      "ኦሊምፒክ": 9342,
      "ከሕግ": 9343,
      "ከኃላፊነታቸው": 9344,
      "የከተሞች": 9345,
      "የሰብል": 9346,
      "ዬን": 9347,
      "ይዟል": 9348,
      "ዳደር": 9349,
      "ገኑ": 9350,
      "እናደር": 9351,
      "ለማኅበራዊ": 9352,
      "ለማውጣት": 9353,
      "ለመምራት": 9354,
      "ለመወያየት": 9355,
      "cour": 9356,
      "ዋልታው": 9357,
      "ተገኙ": 9358,
      "የምገባ": 9359,
      "የጋዜ": 9360,
      "ህዝቡን": 9361,
      "እንደሚገባው": 9362,
      "ኮምፒ": 9363,
      "ንቀሳቀሰ": 9364,
      "ከነበሩ": 9365,
      "የጎደ": 9366,
      "ቅርንጫፎች": 9367,
      "ወረርሽኝን": 9368,
      "ደማቅ": 9369,
      "እንዲሰፍን": 9370,
      "ተወላጅ": 9371,
      "ጥሰቶችን": 9372,
      "የኩላሊት": 9373,
      "ፓትርያርክ": 9374,
      "use": 9375,
      "ሀት": 9376,
      "ልስ": 9377,
      "ሚስ": 9378,
      "ማነ": 9379,
      "ማምጣት": 9380,
      "ቂዎች": 9381,
      "በሚኒስትር": 9382,
      "በችግር": 9383,
      "ካፋ": 9384,
      "ክረን": 9385,
      "የጂቡቲ": 9386,
      "ደባባይ": 9387,
      "ግዳ": 9388,
      "ፀገ": 9389,
      "የተሾሙት": 9390,
      "የሚመረ": 9391,
      "የሚከበረ": 9392,
      "2021": 9393,
      "በትራንስፖርት": 9394,
      "የነጻ": 9395,
      "በማልማት": 9396,
      "ለውጡን": 9397,
      "መራጮች": 9398,
      "እየሆነ": 9399,
      "ከ11": 9400,
      "የጥገና": 9401,
      "አምባሳደ": 9402,
      "ውድድሮች": 9403,
      "በራስ": 9404,
      "ሰለፍ": 9405,
      "አራዳ": 9406,
      "ደካሞችን": 9407,
      "ኤችዲ": 9408,
      "ጫወት": 9409,
      "በቀጣዮቹ": 9410,
      "የተሳተፉበት": 9411,
      "ከሆኑት": 9412,
      "ማኑኤል": 9413,
      "71": 9414,
      "89": 9415,
      "ts": 9416,
      "ሊቃ": 9417,
      "መቼ": 9418,
      "መሪያ": 9419,
      "ረጥ": 9420,
      "ሱቆች": 9421,
      "ሲጓዝ": 9422,
      "ቀኑ": 9423,
      "ቃን": 9424,
      "በ12": 9425,
      "በበጎ": 9426,
      "ባታ": 9427,
      "ቦምብ": 9428,
      "ተጀምሮ": 9429,
      "ኖራት": 9430,
      "ኮከብ": 9431,
      "ወሬ": 9432,
      "ውክልና": 9433,
      "ዓያ": 9434,
      "የሎጂስቲክስ": 9435,
      "የሒሳብ": 9436,
      "የፅዳት": 9437,
      "ደጀ": 9438,
      "ድድር": 9439,
      "የተፈጸመው": 9440,
      "እንዲሰሩ": 9441,
      "መረዳ": 9442,
      "ለመሸጥ": 9443,
      "ማስተር": 9444,
      "በረሃ": 9445,
      "ውስብ": 9446,
      "የቀበሌ": 9447,
      "እየጎበኙ": 9448,
      "አብራ": 9449,
      "የእምነት": 9450,
      "ጠይቁ": 9451,
      "በንጹሃን": 9452,
      "አስተዋጽዖ": 9453,
      "ወንድሙ": 9454,
      "በቆሎ": 9455,
      "አሸነፉ": 9456,
      "ይዘት": 9457,
      "…………": 9458,
      "ሕይወታቸው": 9459,
      "ሹመቶችን": 9460,
      "አጽድቋል": 9461,
      "አስመጪ": 9462,
      "በሜሮን": 9463,
      "more": 9464,
      "ለህብረተሰቡ": 9465,
      "ሐዋሳ": 9466,
      "ሚስተር": 9467,
      "ሰመራ": 9468,
      "በጻ": 9469,
      "ቢስ": 9470,
      "ታዘ": 9471,
      "ናጋ": 9472,
      "ንሲ": 9473,
      "ኢቢሲ": 9474,
      "እገዳ": 9475,
      "ከየካቲት": 9476,
      "ከጅቡቲ": 9477,
      "ከቀረጥ": 9478,
      "ዞች": 9479,
      "የሮ": 9480,
      "የልብ": 9481,
      "የፐብሊክ": 9482,
      "የግንዛቤ": 9483,
      "ይዝ": 9484,
      "ዱላ": 9485,
      "ጀሪያ": 9486,
      "ፀሐይ": 9487,
      "ፋኖ": 9488,
      "አስራት": 9489,
      "ክልትና": 9490,
      "በትክ": 9491,
      "አልተ": 9492,
      "የትና": 9493,
      "አባት": 9494,
      "ከመቶ": 9495,
      "መጠነ": 9496,
      "ማሳደ": 9497,
      "ያገኘው": 9498,
      "ደህን": 9499,
      "እንደሆነና": 9500,
      "በጥራት": 9501,
      "ንቀሳቀሰው": 9502,
      "ያደረገውን": 9503,
      "የደመወዝ": 9504,
      "ልዕክ": 9505,
      "ተረክ": 9506,
      "ባህርዳር": 9507,
      "ዳይሬክተሮች": 9508,
      "በሃይማኖት": 9509,
      "በክረምት": 9510,
      "ሪታንያ": 9511,
      "ጠላቶች": 9512,
      "ብናልፍ": 9513,
      "አሳልፏል": 9514,
      "እቃዎችን": 9515,
      "ተተኳ": 9516,
      "መጀመራቸውን": 9517,
      "ቅንጅታዊ": 9518,
      "ውስብስብ": 9519,
      "ለቁ": 9520,
      "መሾ": 9521,
      "ሞክሩ": 9522,
      "ሰይ": 9523,
      "በወሎ": 9524,
      "ቦረና": 9525,
      "ነበረው": 9526,
      "ኢሕ": 9527,
      "ኢኖቬሽን": 9528,
      "ኤታማዦር": 9529,
      "ኩራት": 9530,
      "የዶ": 9531,
      "የሙዚቃ": 9532,
      "ይዛ": 9533,
      "ጎና": 9534,
      "የተረጋጋ": 9535,
      "colle": 9536,
      "እንዳሳ": 9537,
      "አለመረጋጋት": 9538,
      "ማንም": 9539,
      "በኋላም": 9540,
      "ኮንቴ": 9541,
      "ከፈለ": 9542,
      "መቻች": 9543,
      "ከቱርክ": 9544,
      "ወዳድ": 9545,
      "የዘማች": 9546,
      "ማጣራት": 9547,
      "ዕለቱ": 9548,
      "about": 9549,
      "student": 9550,
      "እያንዳንዱ": 9551,
      "የችርቻሮ": 9552,
      "የመፍትሄ": 9553,
      "ቀልጣፋ": 9554,
      "ተነሳሽነት": 9555,
      "ሆራ": 9556,
      "ሐዘን": 9557,
      "ማበር": 9558,
      "በሥነ": 9559,
      "ባጋጠ": 9560,
      "ትድርና": 9561,
      "ኅልውና": 9562,
      "ከወዲ": 9563,
      "ከግማሽ": 9564,
      "ከለውጡ": 9565,
      "ዋቱ": 9566,
      "ዐብይ": 9567,
      "የጦርነት": 9568,
      "የድርቅ": 9569,
      "ጌዲዮን": 9570,
      "ጳውሎ": 9571,
      "ፅናት": 9572,
      "ማስፈን": 9573,
      "ስማቸው": 9574,
      "ሳይን": 9575,
      "ተነሳ": 9576,
      "ኤፍኤም": 9577,
      "ገናዘበ": 9578,
      "የተሰጣቸው": 9579,
      "ኬንያታ": 9580,
      "አመቱ": 9581,
      "ተራራ": 9582,
      "የሌላቸው": 9583,
      "ils": 9584,
      "የተገነባውን": 9585,
      "ቀመጠው": 9586,
      "ሲምፖዚ": 9587,
      "የሚደነቅ": 9588,
      "ኢሚሬቶች": 9589,
      "ሲዮኖች": 9590,
      "ገነዘቡ": 9591,
      "ተለዋጭ": 9592,
      "አሚኮ": 9593,
      "የሚስተዋለውን": 9594,
      "በጊዜያዊነት": 9595,
      "የኮምቦልቻ": 9596,
      "ተካልኝ": 9597,
      "ከወዲሁ": 9598,
      "03": 9599,
      "gu": 9600,
      "ለሦስተኛ": 9601,
      "ማሰ": 9602,
      "ሠር": 9603,
      "ሣምንት": 9604,
      "ቅለ": 9605,
      "ብራት": 9606,
      "አመር": 9607,
      "ኦፍ": 9608,
      "ከምርጫ": 9609,
      "ከአየር": 9610,
      "ከሶማሌ": 9611,
      "የሴቶችን": 9612,
      "የፈተና": 9613,
      "የዒድ": 9614,
      "ድፍ": 9615,
      "ጉት": 9616,
      "የተነሱ": 9617,
      "በአቃቂ": 9618,
      "ከተከሰ": 9619,
      "2023": 9620,
      "እንደሚወስድ": 9621,
      "ለመጠ": 9622,
      "ለመተግበር": 9623,
      "እየተንቀሳቀሰ": 9624,
      "ባንክና": 9625,
      "የማቋቋም": 9626,
      "ፕሮፓ": 9627,
      "ግንባታዎች": 9628,
      "በኦሮሚያና": 9629,
      "ዴኤታው": 9630,
      "መወሰዱን": 9631,
      "arch": 9632,
      "በሽር": 9633,
      "የግዥ": 9634,
      "መገኘቱ": 9635,
      "ምረጥ": 9636,
      "ማውጣት": 9637,
      "ተሸላሚ": 9638,
      "በመገኘቱ": 9639,
      "አስተላልፏል": 9640,
      "የጣና": 9641,
      "የመጣው": 9642,
      "የመስኖና": 9643,
      "ክርስቲያናት": 9644,
      "የሚፈቅድ": 9645,
      "መሰጠቱን": 9646,
      "መከናወኑን": 9647,
      "ጎብኚዎች": 9648,
      "53": 9649,
      "ለህግ": 9650,
      "ለጀግናው": 9651,
      "ሊታ": 9652,
      "ሐሳቦች": 9653,
      "መምር": 9654,
      "መገባ": 9655,
      "መጀመር": 9656,
      "ረጡ": 9657,
      "በባለ": 9658,
      "በየካ": 9659,
      "በኦሮሞ": 9660,
      "ኅጉ": 9661,
      "ነሜ": 9662,
      "ከምን": 9663,
      "ውሏል": 9664,
      "ዛቸውን": 9665,
      "የሪ": 9666,
      "የፌስቡክ": 9667,
      "የሹመት": 9668,
      "ፒኤችዲ": 9669,
      "የሚመጥን": 9670,
      "ለማን": 9671,
      "እንዲቋቋም": 9672,
      "በመረዳት": 9673,
      "በመተላለፍ": 9674,
      "በባህ": 9675,
      "ከፍት": 9676,
      "ደረጃጀት": 9677,
      "ለሚገነባው": 9678,
      "ከሰዓት": 9679,
      "የኮሌ": 9680,
      "ሙሉነህ": 9681,
      "ማሳለ": 9682,
      "ከፈሉ": 9683,
      "ልዑኩ": 9684,
      "በጥንቃቄ": 9685,
      "ድርጊቱ": 9686,
      "ጥበቃና": 9687,
      "ገደማ": 9688,
      "እያደረገች": 9689,
      "ከብሩ": 9690,
      "ናፊነት": 9691,
      "hel": 9692,
      "ታቅዷል": 9693,
      "መተላለ": 9694,
      "ተፈራርሟል": 9695,
      "ከሳኡዲ": 9696,
      "በመልካም": 9697,
      "እያንዳንዳቸው": 9698,
      "የአዋሽ": 9699,
      "ምሰሶ": 9700,
      "ጳውሎስ": 9701,
      "ፕሮፓጋንዳ": 9702,
      "64": 9703,
      "gree": 9704,
      "ለሉ": 9705,
      "ለሌላ": 9706,
      "ሊኖር": 9707,
      "መፃ": 9708,
      "መትና": 9709,
      "ማጋራት": 9710,
      "ሜዲ": 9711,
      "ረቻ": 9712,
      "በ7": 9713,
      "በክፍለ": 9714,
      "በጽኑ": 9715,
      "ኢት": 9716,
      "ኦፊ": 9717,
      "ከጠ": 9718,
      "ኩባ": 9719,
      "ውተር": 9720,
      "ውያኑ": 9721,
      "የበት": 9722,
      "ገናል": 9723,
      "እንደማት": 9724,
      "በአት": 9725,
      "በአብላ": 9726,
      "እንደሚኖር": 9727,
      "የመትከል": 9728,
      "ገለጸ42ኛ": 9729,
      "ግራና": 9730,
      "ግለፅ": 9731,
      "ናቸውም": 9732,
      "የጥላቻ": 9733,
      "ቀርባል": 9734,
      "ከንቲባው": 9735,
      "የካፒ": 9736,
      "የአማራና": 9737,
      "አክለዋል": 9738,
      "የልማትና": 9739,
      "መሰረትም": 9740,
      "በጥሬ": 9741,
      "ብሮድካስት": 9742,
      "ኤርዶ": 9743,
      "ይህንንም": 9744,
      "የቤትኪንግ": 9745,
      "ቀጠለ": 9746,
      "አስከፊ": 9747,
      "ገጠመው": 9748,
      "ሰራዊትና": 9749,
      "ኤክስፖ": 9750,
      "ማቆያ": 9751,
      "በቀረበው": 9752,
      "ዓለማየሁ": 9753,
      "የክላሽ": 9754,
      "የሚከበረውን": 9755,
      "በአብላጫ": 9756,
      "04": 9757,
      "350": 9758,
      "bra": 9759,
      "ሀረር": 9760,
      "ለዓመታት": 9761,
      "መከራ": 9762,
      "ሙሴ": 9763,
      "ማችን": 9764,
      "ሜቴክ": 9765,
      "ረፉ": 9766,
      "ራቢ": 9767,
      "በጠበቀ": 9768,
      "በፈረንሳይ": 9769,
      "ተዋና": 9770,
      "ተመሠረተ": 9771,
      "ታም": 9772,
      "ንክ": 9773,
      "ከጤና": 9774,
      "ከ23": 9775,
      "ዕግድ": 9776,
      "የቡድኑ": 9777,
      "ጎላ": 9778,
      "ፅሁፍ": 9779,
      "የአሠራ": 9780,
      "በአነስተኛ": 9781,
      "ከተደረገ": 9782,
      "በመነጋገር": 9783,
      "በተደራጀ": 9784,
      "ማስገባት": 9785,
      "በሚባል": 9786,
      "ለያይ": 9787,
      "ተወልደ": 9788,
      "አንድም": 9789,
      "ለማስፈጸም": 9790,
      "ለችግር": 9791,
      "ውልት": 9792,
      "ግልፅ": 9793,
      "ዘመቻውን": 9794,
      "ወስኗል": 9795,
      "ፖርቲ": 9796,
      "ተፈጸመ": 9797,
      "deta": 9798,
      "ከ400": 9799,
      "ምዝገባና": 9800,
      "provi": 9801,
      "side": 9802,
      "የሕዝቡን": 9803,
      "ማዕድናት": 9804,
      "ማክሮን": 9805,
      "የአትሌቲክስ": 9806,
      "አስገዳጅ": 9807,
      "ber": 9808,
      "ለግ": 9809,
      "ቋት": 9810,
      "በወታደራዊ": 9811,
      "በኮምቦልቻ": 9812,
      "ቬን": 9813,
      "ተደ": 9814,
      "ኤክ": 9815,
      "ካላ": 9816,
      "ዊሊያም": 9817,
      "ዘገ": 9818,
      "የዩ": 9819,
      "የጀመሩ": 9820,
      "የወቅቱ": 9821,
      "የፕሮጀክቱ": 9822,
      "ደድ": 9823,
      "ጫማ": 9824,
      "እናስ": 9825,
      "የተሟላ": 9826,
      "በመወከል": 9827,
      "በተመረጡ": 9828,
      "የንጹህ": 9829,
      "የመኸር": 9830,
      "ያስመዘገቡ": 9831,
      "ong": 9832,
      "በሚደረጉ": 9833,
      "ማራው": 9834,
      "ከመቼ": 9835,
      "የተሰሩ": 9836,
      "ህዝባችን": 9837,
      "እየፈፀመ": 9838,
      "ሰርጌ": 9839,
      "መሪነት": 9840,
      "ወልዴ": 9841,
      "ፍራሽ": 9842,
      "በጥሩ": 9843,
      "ary": 9844,
      "አለመቻ": 9845,
      "ስፍራዎች": 9846,
      "የልደት": 9847,
      "በዋግ": 9848,
      "ሙፈሪያት": 9849,
      "እንዲቀጡ": 9850,
      "እያሳየ": 9851,
      "ወላጆች": 9852,
      "አንደኛው": 9853,
      "እሸቴ": 9854,
      "ተሰማርተው": 9855,
      "05": 9856,
      "ven": 9857,
      "ሊቱ": 9858,
      "ሚዛ": 9859,
      "ሜክሲኮ": 9860,
      "ምሥ": 9861,
      "በከተሞች": 9862,
      "እሱን": 9863,
      "ከግንቦት": 9864,
      "ካሜ": 9865,
      "ዕይታ": 9866,
      "የቦሌ": 9867,
      "ያህሉ": 9868,
      "ጀላ": 9869,
      "ጋለጥ": 9870,
      "ጦጦ": 9871,
      "በመሳተፍ": 9872,
      "ለመሸፈን": 9873,
      "ደርበው": 9874,
      "በርክ": 9875,
      "እስረኞች": 9876,
      "የቀይ": 9877,
      "ገንብ": 9878,
      "በዓለ": 9879,
      "ለሚመጡ": 9880,
      "ለማስፋፋት": 9881,
      "የጋሞ": 9882,
      "በታሪ": 9883,
      "ኤምባሲዎች": 9884,
      "በሽታው": 9885,
      "ለገስ": 9886,
      "ፈራረ": 9887,
      "አረጋግጧል": 9888,
      "ሰራዊታችን": 9889,
      "ለምርጫ": 9890,
      "በአሸባሪ": 9891,
      "በአገራዊ": 9892,
      "መፍጠሩን": 9893,
      "መቃወሚያ": 9894,
      "መደምሰ": 9895,
      "ተተኳሽ": 9896,
      "መምርያ": 9897,
      "ሁላችንም": 9898,
      "ሃሰን": 9899,
      "ህው": 9900,
      "ሊገባ": 9901,
      "መዓ": 9902,
      "ሪና": 9903,
      "ራንን": 9904,
      "ሲገባ": 9905,
      "ቃለን": 9906,
      "አቃቤ": 9907,
      "አሶሳ": 9908,
      "እጣ": 9909,
      "ከጀመረ": 9910,
      "ኮት": 9911,
      "የሳዑዲ": 9912,
      "የወሰዱ": 9913,
      "ይዙ": 9914,
      "ጅነት": 9915,
      "ጽዮን": 9916,
      "የተዘጋጁ": 9917,
      "የተመረጡ": 9918,
      "መንጃ": 9919,
      "እንዲቀርቡ": 9920,
      "በመኖሪያ": 9921,
      "የነበራቸው": 9922,
      "መላካ": 9923,
      "አዋጆች": 9924,
      "የታሰሩ": 9925,
      "ኤልያስ": 9926,
      "ለውጥን": 9927,
      "ድርጊታቸው": 9928,
      "የሞት": 9929,
      "የማስፋፊያ": 9930,
      "የራሱ": 9931,
      "ሸነፈ": 9932,
      "ፕሬዚዳንቷ": 9933,
      "ጎብኝቷል": 9934,
      "within": 9935,
      "ካይሮ": 9936,
      "ሰማያዊ": 9937,
      "exam": 9938,
      "ሠራዊትን": 9939,
      "ከጎረቤት": 9940,
      "ያስረዱት": 9941,
      "ማበረታቻዎችን": 9942,
      "ስርጭትን": 9943,
      "ሊባኖስ": 9944,
      "students": 9945,
      "!”": 9946,
      "line": 9947,
      "ሁመራ": 9948,
      "ሃና": 9949,
      "ለስራ": 9950,
      "ሪሳ": 9951,
      "ራቅ": 9952,
      "በመንገድ": 9953,
      "በዘንድሮ": 9954,
      "ብና": 9955,
      "ቲዮ": 9956,
      "ታሰሩ": 9957,
      "ቴፒ": 9958,
      "ከኬንያ": 9959,
      "የፈጠረ": 9960,
      "የቤተ": 9961,
      "ያስተላለፉት": 9962,
      "ገት": 9963,
      "ፋለች": 9964,
      "ፍትን": 9965,
      "ፍጥነት": 9966,
      "የተሻ": 9967,
      "የተረጋገጠ": 9968,
      "የተደራጀ": 9969,
      "የአራ": 9970,
      "መርጃ": 9971,
      "እየተወጣ": 9972,
      "በቀጠናው": 9973,
      "ተኞቹ": 9974,
      "ገራችንን": 9975,
      "ደራስ": 9976,
      "ደራርቱ": 9977,
      "ክለቦች": 9978,
      "ሕዝብና": 9979,
      "11ኛ": 9980,
      "አቋራጭ": 9981,
      "org": 9982,
      "ጣቢያው": 9983,
      "ነሳው": 9984,
      "ድሬደዋ": 9985,
      "በጥቁር": 9986,
      "degree": 9987,
      "የመስክ": 9988,
      "መናን": 9989,
      "የራሳቸውን": 9990,
      "የሚመሩ": 9991,
      "ካሂዱ": 9992,
      "የመሠረት": 9993,
      "መተግበር": 9994,
      "ማቅረቡን": 9995,
      "ደናቀፍ": 9996,
      "ብቸኛ": 9997,
      "አመንቴ": 9998,
      "በሰለሞን": 9999,
      "ማነቆ": 10000,
      "51": 10001,
      "ለ3": 10002,
      "ለሰው": 10003,
      "ለፖሊስ": 10004,
      "ለሀገሪቱ": 10005,
      "መገር": 10006,
      "ሙሀመድ": 10007,
      "ማሠል": 10008,
      "ሪቷን": 10009,
      "ርያ": 10010,
      "ርነት": 10011,
      "ሶፍት": 10012,
      "በምርመራ": 10013,
      "ብለን": 10014,
      "ተሰብስ": 10015,
      "ኑሩ": 10016,
      "አታ": 10017,
      "ከትናንት": 10018,
      "ከጀርመን": 10019,
      "የያዘው": 10020,
      "ዶቹ": 10021,
      "ጃዋር": 10022,
      "ጋው": 10023,
      "ፔን": 10024,
      "ፖላንድ": 10025,
      "ለማው": 10026,
      "በአመለወርቅ": 10027,
      "እንዲመለስ": 10028,
      "ለመታደ": 10029,
      "ance": 10030,
      "ለምታ": 10031,
      "መርከብ": 10032,
      "ሎችና": 10033,
      "የአፍሪካን": 10034,
      "የማክሮ": 10035,
      "እያጋጠ": 10036,
      "በልደታ": 10037,
      "develop": 10038,
      "ጨዋታውን": 10039,
      "የማዕድንና": 10040,
      "ፍሬያማ": 10041,
      "ጥቅል": 10042,
      "ማውጣ": 10043,
      "በሽታዎች": 10044,
      "ተዳደሩ": 10045,
      "ህጻናትና": 10046,
      "የምስክር": 10047,
      "ኤሌክትሮኒክ": 10048,
      "ያስታወቁት": 10049,
      "ሒደቱ": 10050,
      "ንዋያቸውን": 10051,
      "ተጫዋቾች": 10052,
      "ወንድማማችነት": 10053,
      "ተዘዋውረው": 10054,
      "ያግዛል": 10055,
      "08": 10056,
      "09": 10057,
      ":-": 10058,
      "ces": 10059,
      "other": 10060,
      "year": 10061,
      "ሃጫሉ": 10062,
      "ለጦርነት": 10063,
      "ለሕግ": 10064,
      "መጡት": 10065,
      "ማዋል": 10066,
      "ማከናወ": 10067,
      "ሩዋንዳ": 10068,
      "በቲ": 10069,
      "በዶ": 10070,
      "ባባሰ": 10071,
      "አሽከርካሪ": 10072,
      "ከፕሬዚዳንት": 10073,
      "ዉስጥ": 10074,
      "ዘነበ": 10075,
      "የዱ": 10076,
      "ያደረሰውን": 10077,
      "ይመረ": 10078,
      "ይፈጥ": 10079,
      "ጎሳ": 10080,
      "ጣለች": 10081,
      "ጨፈ": 10082,
      "የሚካሄደውን": 10083,
      "እንዲሠሩ": 10084,
      "ለመር": 10085,
      "የመማሪያ": 10086,
      "አባቶቻችን": 10087,
      "ጤናማ": 10088,
      "ተሰጠው": 10089,
      "ለሚደረገው": 10090,
      "ኃይልን": 10091,
      "ፕሬዚዳንትና": 10092,
      "ቀጥሎ": 10093,
      "አውጪ": 10094,
      "ጽንኦት": 10095,
      "ይቀው": 10096,
      "ፈቃደ": 10097,
      "ተመርቋል": 10098,
      "አዋጅን": 10099,
      "ተገኝቷል": 10100,
      "የሕዝብን": 10101,
      "ፋብሪካው": 10102,
      "አስተባባሪና": 10103,
      "ቀደሙ": 10104,
      "play": 10105,
      "ህጻናትን": 10106,
      "university": 10107,
      "በጉራጌ": 10108,
      "የሚገባውን": 10109,
      "መዋቅራዊ": 10110,
      "መተግበሪያን": 10111,
      "የሚችለውን": 10112,
      "አስረክቧል": 10113,
      "መዳረጋ": 10114,
      "አሳይቷል": 10115,
      "ትሩፋት": 10116,
      "ሰልጣኞች": 10117,
      "ኮንትራ": 10118,
      "የተጠረጠ": 10119,
      "ኔዘርላንድስ": 10120,
      "ለሀገራዊ": 10121,
      "ሕግና": 10122,
      "መኪ": 10123,
      "መጠናከር": 10124,
      "ሴክተር": 10125,
      "ሸኮ": 10126,
      "ቃሉ": 10127,
      "በሮ": 10128,
      "በድ": 10129,
      "በፈፀ": 10130,
      "በሌሎችም": 10131,
      "ተሹ": 10132,
      "ተሻለ": 10133,
      "ተሿሚ": 10134,
      "ቶሎ": 10135,
      "ነጩ": 10136,
      "ነኛው": 10137,
      "ናስር": 10138,
      "ኡር": 10139,
      "ከፖለቲካ": 10140,
      "ከስድስት": 10141,
      "ክቡር": 10142,
      "ዝታ": 10143,
      "የድምጽ": 10144,
      "የልምድ": 10145,
      "የሠራተኛ": 10146,
      "ድድሩ": 10147,
      "ፈሩ": 10148,
      "ፈራል": 10149,
      "ፎረሙ": 10150,
      "ለማቃለል": 10151,
      "እንዲሻሻል": 10152,
      "በመጨረሻ": 10153,
      "በመሥራት": 10154,
      "ማስጨ": 10155,
      "መረጃን": 10156,
      "ድንቅ": 10157,
      "እየፈጸመ": 10158,
      "ሆነን": 10159,
      "ተገበረ": 10160,
      "የሚያገለግሉ": 10161,
      "አስተዳደርን": 10162,
      "this": 10163,
      "ምክንያታዊ": 10164,
      "ችግሮ": 10165,
      "አቅሙ": 10166,
      "ሚናቸውን": 10167,
      "ድርጊቶችን": 10168,
      "እንደማይችል": 10169,
      "አላስ": 10170,
      "ተዳደር": 10171,
      "ribu": 10172,
      "አስከሬን": 10173,
      "የምዕራባውያን": 10174,
      "ማምሻውን": 10175,
      "በቀድሞው": 10176,
      "ነቃቃት": 10177,
      "የሚገነባው": 10178,
      "ribution": 10179,
      "rou": 10180,
      "ለለ": 10181,
      "ለአምስት": 10182,
      "ልኝ": 10183,
      "መፈፀ": 10184,
      "ሳና": 10185,
      "ቅንጅት": 10186,
      "በጠ": 10187,
      "በ2016": 10188,
      "በፅኑ": 10189,
      "ቭሮቭ": 10190,
      "ተበረከተ": 10191,
      "ቲዎ": 10192,
      "ታወቅ": 10193,
      "ቼክ": 10194,
      "ነቁ": 10195,
      "ካዶ": 10196,
      "ክሸፍ": 10197,
      "ዘሪ": 10198,
      "የቲ": 10199,
      "የዕርዳታ": 10200,
      "ግኝ": 10201,
      "ግቦችን": 10202,
      "ጸሃፊ": 10203,
      "በአደጋ": 10204,
      "በመልዕክ": 10205,
      "ሥራቸውን": 10206,
      "እስያ": 10207,
      "የማነ": 10208,
      "ፌዴሬሽኑ": 10209,
      "ከርሰ": 10210,
      "አገግ": 10211,
      "ከሰል": 10212,
      "por": 10213,
      "ውሳኔው": 10214,
      "time": 10215,
      "ገለፀች": 10216,
      "ቀጣዩ": 10217,
      "ኢንስቲቲዩት": 10218,
      "ግብፅና": 10219,
      "ከአፋር": 10220,
      "አቡበከር": 10221,
      "ያደርጋሉ": 10222,
      "መዘጋጀታቸውን": 10223,
      "የሱፍ": 10224,
      "በንግድና": 10225,
      "ተመልክተዋል": 10226,
      "አደረጃጀቶች": 10227,
      "ተፈታኞች": 10228,
      "ያወጣውን": 10229,
      "መከሰቱን": 10230,
      "ብጥብጥ": 10231,
      "ታንዛኒያ": 10232,
      "አነጋግረዋል": 10233,
      "አመርቂ": 10234,
      "የካፒታል": 10235,
      "details": 10236,
      "ከመቼውም": 10237,
      "cl": 10238,
[...]
